<unk>	0
<s>	0
</s>	0
▁t	-0
▁a	-1
in	-2
▁th	-3
er	-4
▁s	-5
▁the	-6
on	-7
re	-8
▁c	-9
▁o	-10
▁b	-11
▁m	-12
▁w	-13
▁f	-14
an	-15
en	-16
es	-17
▁p	-18
it	-19
▁in	-20
at	-21
or	-22
▁N	-23
ed	-24
ar	-25
▁of	-26
al	-27
▁h	-28
▁to	-29
is	-30
▁an	-31
ing	-32
▁d	-33
ion	-34
ro	-35
il	-36
ic	-37
▁n	-38
as	-39
▁l	-40
ou	-41
▁and	-42
▁e	-43
om	-44
▁re	-45
ent	-46
id	-47
st	-48
et	-49
ill	-50
el	-51
ec	-52
▁g	-53
ut	-54
▁'	-55
ay	-56
▁for	-57
▁it	-58
▁u	-59
▁st	-60
▁com	-61
▁that	-62
▁on	-63
ad	-64
ve	-65
ers	-66
ur	-67
▁is	-68
ly	-69
▁wh	-70
th	-71
ol	-72
ac	-73
▁y	-74
est	-75
▁be	-76
ir	-77
▁$	-78
▁pro	-79
le	-80
ig	-81
▁sa	-82
▁con	-83
ation	-84
se	-85
ow	-86
ver	-87
▁as	-88
illion	-89
im	-90
ter	-91
▁sh	-92
ment	-93
ch	-94
▁comp	-95
▁r	-96
▁said	-97
▁at	-98
▁ex	-99
ear	-100
res	-101
▁j	-102
ce	-103
ith	-104
ge	-105
ts	-106
▁ne	-107
▁with	-108
▁al	-109
ld	-110
ate	-111
▁ch	-112
qu	-113
▁by	-114
▁mo	-115
rom	-116
am	-117
▁he	-118
▁de	-119
▁tr	-120
▁from	-121
▁million	-122
ot	-123
▁mr	-124
oc	-125
os	-126
▁su	-127
ak	-128
ies	-129
▁was	-130
ain	-131
▁are	-132
ct	-133
▁un	-134
▁v	-135
▁bu	-136
if	-137
ere	-138
▁inc	-139
un	-140
▁its	-141
ould	-142
ul	-143
ial	-144
▁year	-145
any	-146
ap	-147
▁mar	-148
are	-149
ess	-150
▁or	-151
iv	-152
ect	-153
ort	-154
▁but	-155
▁ha	-156
▁has	-157
▁will	-158
ust	-159
▁new	-160
▁off	-161
igh	-162
pp	-163
ds	-164
▁have	-165
em	-166
ive	-167
▁ab	-168
oun	-169
▁pr	-170
ome	-171
ays	-172
ast	-173
▁mark	-174
ell	-175
▁se	-176
ding	-177
▁we	-178
ich	-179
ity	-180
um	-181
▁co	-182
▁ad	-183
▁pl	-184
out	-185
ock	-186
▁market	-187
▁ag	-188
▁sp	-189
art	-190
▁le	-191
▁company	-192
all	-193
ag	-194
▁exp	-195
ther	-196
▁they	-197
▁ind	-198
tr	-199
age	-200
ab	-201
op	-202
ice	-203
▁inv	-204
▁this	-205
and	-206
gh	-207
▁mon	-208
▁stock	-209
ant	-210
▁k	-211
ue	-212
▁which	-213
du	-214
▁go	-215
▁ac	-216
▁trad	-217
end	-218
ork	-219
▁would	-220
our	-221
▁about	-222
ors	-223
ie	-224
ake	-225
act	-226
▁ro	-227
▁not	-228
▁ear	-229
▁more	-230
ank	-231
ans	-232
▁cor	-233
▁says	-234
▁rep	-235
▁bo	-236
▁am	-237
ard	-238
rou	-239
▁comm	-240
▁invest	-241
anc	-242
▁cl	-243
ire	-244
▁res	-245
▁his	-246
ong	-247
▁fir	-248
▁were	-249
ber	-250
▁qu	-251
▁up	-252
ip	-253
der	-254
day	-255
pt	-256
▁billion	-257
au	-258
▁one	-259
ine	-260
▁corp	-261
▁who	-262
▁do	-263
man	-264
▁inter	-265
▁had	-266
▁their	-267
ore	-268
▁dis	-269
▁some	-270
▁so	-271
▁pres	-272
ations	-273
▁share	-274
ions	-275
ib	-276
ack	-277
▁bus	-278
ff	-279
ure	-280
▁sal	-281
ud	-282
▁bank	-283
od	-284
▁rec	-285
▁than	-286
▁fin	-287
us	-288
▁all	-289
▁out	-290
ated	-291
▁been	-292
per	-293
ight	-294
so	-295
ign	-296
ach	-297
▁man	-298
▁sec	-299
▁also	-300
ven	-301
▁dec	-302
eral	-303
ident	-304
▁other	-305
▁int	-306
▁bec	-307
▁cont	-308
ance	-309
ings	-310
ok	-311
▁app	-312
ist	-313
▁produ	-314
yst	-315
▁pre	-316
▁no	-317
ia	-318
▁en	-319
ree	-320
ren	-321
ely	-322
ents	-323
ru	-324
▁part	-325
ase	-326
▁im	-327
▁fr	-328
ition	-329
▁lo	-330
old	-331
▁br	-332
▁af	-333
ical	-334
ek	-335
▁i	-336
ond	-337
ual	-338
ary	-339
ates	-340
▁cons	-341
ices	-342
▁tw	-343
ities	-344
▁me	-345
iness	-346
aw	-347
▁ass	-348
ous	-349
▁business	-350
oll	-351
▁month	-352
own	-353
ik	-354
ares	-355
▁can	-356
arter	-357
ange	-358
ustr	-359
bl	-360
▁president	-361
▁when	-362
▁if	-363
▁two	-364
▁over	-365
▁last	-366
▁high	-367
ause	-368
ile	-369
▁after	-370
ime	-371
▁per	-372
▁us	-373
▁acc	-374
ail	-375
▁shares	-376
▁years	-377
▁ar	-378
ough	-379
▁buy	-380
ose	-381
▁first	-382
▁offic	-383
▁po	-384
ish	-385
ide	-386
iz	-387
▁sales	-388
ey	-389
wn	-390
▁because	-391
▁trading	-392
vel	-393
ex	-394
ational	-395
▁could	-396
erv	-397
able	-398
▁fed	-399
▁may	-400
▁there	-401
ms	-402
con	-403
li	-404
▁industr	-405
▁any	-406
gr	-407
▁fe	-408
▁oper	-409
roup	-410
▁imp	-411
▁week	-412
▁group	-413
oss	-414
lo	-415
▁&	-416
▁work	-417
ecut	-418
▁iss	-419
▁most	-420
▁fun	-421
▁under	-422
▁act	-423
fit	-424
ite	-425
ments	-426
▁only	-427
reas	-428
air	-429
▁gen	-430
row	-431
▁such	-432
vern	-433
ures	-434
▁offer	-435
▁york	-436
ected	-437
ress	-438
▁govern	-439
eric	-440
itt	-441
▁ma	-442
very	-443
▁pol	-444
arg	-445
apan	-446
▁japan	-447
ult	-448
▁incl	-449
▁pe	-450
▁wor	-451
▁into	-452
▁plan	-453
▁jo	-454
conom	-455
▁econom	-456
▁interest	-457
▁own	-458
▁law	-459
ester	-460
▁report	-461
▁americ	-462
▁financ	-463
urn	-464
int	-465
▁str	-466
ence	-467
rop	-468
osed	-469
ubl	-470
▁many	-471
▁unit	-472
▁car	-473
eld	-474
▁add	-475
ee	-476
ced	-477
▁say	-478
ues	-479
▁sell	-480
ount	-481
ang	-482
▁exch	-483
▁big	-484
▁government	-485
▁el	-486
▁quarter	-487
one	-488
▁ret	-489
▁execut	-490
▁federal	-491
▁anal	-492
▁mak	-493
▁est	-494
av	-495
ace	-496
▁now	-497
▁down	-498
▁secur	-499
red	-500
▁state	-501
ower	-502
ax	-503
▁compan	-504
ens	-505
▁bro	-506
▁lik	-507
▁cap	-508
▁inst	-509
hn	-510
▁net	-511
▁companies	-512
ital	-513
ating	-514
▁cr	-515
for	-516
▁min	-517
▁contr	-518
▁dep	-519
▁ann	-520
▁time	-521
▁cur	-522
uring	-523
▁how	-524
ise	-525
gram	-526
▁program	-527
▁analyst	-528
▁sub	-529
▁official	-530
ction	-531
iss	-532
ict	-533
▁cents	-534
▁ins	-535
▁bet	-536
▁sen	-537
lier	-538
ople	-539
▁earn	-540
▁em	-541
ade	-542
vi	-543
ines	-544
▁you	-545
▁even	-546
enc	-547
▁exchange	-548
▁people	-549
▁profit	-550
rough	-551
▁prices	-552
ble	-553
▁pay	-554
▁def	-555
▁dire	-556
▁conc	-557
▁recent	-558
▁what	-559
▁price	-560
▁cost	-561
▁curren	-562
jor	-563
▁major	-564
ass	-565
▁end	-566
▁investors	-567
ief	-568
her	-569
uch	-570
ert	-571
▁just	-572
ets	-573
ett	-574
▁produc	-575
▁sc	-576
▁bon	-577
▁rose	-578
xt	-579
▁while	-580
▁decl	-581
▁disc	-582
▁contin	-583
▁take	-584
▁them	-585
ouse	-586
▁three	-587
▁much	-588
▁eff	-589
▁yester	-590
▁yesterday	-591
▁publ	-592
▁reg	-593
▁again	-594
▁ste	-595
▁serv	-596
▁securities	-597
▁des	-598
▁months	-599
▁direct	-600
ink	-601
we	-602
ird	-603
▁sl	-604
fer	-605
▁air	-606
orn	-607
ision	-608
▁tax	-609
▁bonds	-610
orts	-611
▁cour	-612
▁deb	-613
ased	-614
▁next	-615
▁back	-616
▁financial	-617
ian	-618
▁mer	-619
▁prov	-620
▁through	-621
▁third	-622
ific	-623
▁real	-624
▁supp	-625
▁comput	-626
▁spec	-627
▁sm	-628
▁chair	-629
reat	-630
▁coun	-631
▁loss	-632
▁att	-633
▁rem	-634
▁earlier	-635
ern	-636
▁make	-637
▁long	-638
▁trans	-639
▁bl	-640
▁fore	-641
▁earnings	-642
ame	-643
▁grow	-644
▁investment	-645
ash	-646
▁call	-647
ility	-648
ince	-649
▁house	-650
ved	-651
▁american	-652
ix	-653
▁chairman	-654
ects	-655
▁acqu	-656
▁capital	-657
▁dr	-658
▁gu	-659
▁she	-660
▁did	-661
▁nor	-662
ystem	-663
ield	-664
▁these	-665
fl	-666
▁industry	-667
ury	-668
▁gain	-669
▁increas	-670
amp	-671
▁cal	-672
▁rest	-673
▁chief	-674
▁board	-675
▁system	-676
▁val	-677
▁lead	-678
▁still	-679
▁general	-680
▁dem	-681
▁war	-682
gress	-683
▁stocks	-684
ives	-685
ied	-686
fore	-687
▁those	-688
▁money	-689
▁form	-690
▁executive	-691
velop	-692
▁current	-693
▁since	-694
ory	-695
▁sur	-696
elp	-697
▁bel	-698
ick	-699
ord	-700
▁prop	-701
▁ph	-702
ost	-703
▁deal	-704
▁before	-705
▁bill	-706
▁hol	-707
ember	-708
og	-709
▁rate	-710
ared	-711
▁made	-712
▁develop	-713
▁national	-714
▁div	-715
▁officials	-716
▁pur	-717
loy	-718
▁par	-719
gan	-720
▁fut	-721
isc	-722
▁adv	-723
ible	-724
▁equ	-725
▁bid	-726
ollar	-727
▁concern	-728
▁like	-729
▁well	-730
over	-731
ater	-732
son	-733
▁intern	-734
▁aut	-735
▁analysts	-736
verage	-737
ty	-738
▁oct	-739
▁kn	-740
▁buil	-741
▁expected	-742
ese	-743
und	-744
▁help	-745
▁proble	-746
▁rel	-747
▁cred	-748
min	-749
ional	-750
▁far	-751
▁days	-752
▁fl	-753
itut	-754
▁rates	-755
ound	-756
▁manag	-757
ons	-758
▁japanese	-759
rol	-760
▁against	-761
ics	-762
▁does	-763
oci	-764
▁del	-765
▁show	-766
ertain	-767
▁calif	-768
io	-769
gin	-770
cess	-771
▁reven	-772
▁four	-773
▁sign	-774
▁news	-775
▁public	-776
its	-777
▁ed	-778
▁col	-779
▁world	-780
read	-781
▁firm	-782
ft	-783
ween	-784
▁emp	-785
▁between	-786
▁appro	-787
▁includ	-788
▁both	-789
▁sept	-790
▁her	-791
▁estim	-792
ency	-793
▁dollar	-794
ry	-795
▁income	-796
▁congress	-797
ally	-798
▁insur	-799
▁ent	-800
▁fell	-801
uc	-802
ily	-803
▁sch	-804
ug	-805
uding	-806
ative	-807
▁index	-808
ks	-809
arge	-810
ider	-811
▁issue	-812
ued	-813
ants	-814
▁depart	-815
▁vol	-816
istr	-817
▁revenue	-818
▁get	-819
▁products	-820
▁markets	-821
iew	-822
▁small	-823
▁spok	-824
ner	-825
form	-826
ists	-827
▁brit	-828
▁international	-829
▁fil	-830
▁funds	-831
▁court	-832
▁lower	-833
▁jun	-834
ton	-835
▁should	-836
ric	-837
▁ago	-838
▁average	-839
▁tel	-840
ior	-841
▁during	-842
▁leg	-843
▁larg	-844
▁elect	-845
vert	-846
▁requ	-847
▁ano	-848
▁credit	-849
▁another	-850
▁foreign	-851
▁gr	-852
ising	-853
ording	-854
▁computer	-855
▁tot	-856
▁countr	-857
▁employ	-858
▁higher	-859
▁spokes	-860
▁debt	-861
▁control	-862
▁reported	-863
pen	-864
▁sever	-865
▁eu	-866
▁cent	-867
▁ra	-868
▁num	-869
me	-870
▁including	-871
▁among	-872
▁being	-873
▁him	-874
▁each	-875
▁rese	-876
▁according	-877
▁need	-878
▁announ	-879
ined	-880
▁though	-881
ever	-882
ually	-883
▁remain	-884
▁few	-885
▁agree	-886
▁common	-887
▁ter	-888
▁trade	-889
arch	-890
▁our	-891
▁research	-892
echn	-893
▁cut	-894
▁stre	-895
▁associ	-896
▁less	-897
alth	-898
▁compl	-899
ning	-900
▁put	-901
▁way	-902
▁fund	-903
▁redu	-904
▁total	-905
reed	-906
ular	-907
▁dif	-908
▁past	-909
▁operations	-910
ending	-911
▁five	-912
▁then	-913
▁rece	-914
ired	-915
▁purch	-916
▁department	-917
led	-918
▁sale	-919
▁ev	-920
▁turn	-921
ged	-922
hip	-923
ibut	-924
▁ser	-925
▁yield	-926
▁however	-927
▁institut	-928
rease	-929
▁addition	-930
hing	-931
▁sold	-932
▁vice	-933
▁plans	-934
▁main	-935
▁resp	-936
agement	-937
▁economic	-938
ood	-939
▁sim	-940
▁pers	-941
▁sou	-942
▁closed	-943
▁want	-944
olders	-945
ind	-946
▁cle	-947
rope	-948
▁every	-949
▁polit	-950
▁think	-951
▁europe	-952
▁insurance	-953
▁growth	-954
▁good	-955
▁corpor	-956
ether	-957
▁meet	-958
▁treas	-959
▁increase	-960
als	-961
▁bush	-962
▁contract	-963
aper	-964
iday	-965
ruct	-966
▁consider	-967
▁jud	-968
vious	-969
▁banks	-970
▁several	-971
ject	-972
▁near	-973
▁techn	-974
pped	-975
▁where	-976
▁issues	-977
▁return	-978
▁franc	-979
▁eng	-980
▁bond	-981
▁second	-982
▁sw	-983
ceed	-984
▁use	-985
▁head	-986
▁very	-987
ves	-988
▁ben	-989
▁tak	-990
▁yen	-991
ollow	-992
▁follow	-993
▁mat	-994
▁rev	-995
uf	-996
▁day	-997
▁move	-998
▁stud	-999
▁due	-1000
▁san	-1001
▁treasury	-1002
▁oil	-1003
▁look	-1004
▁management	-1005
▁power	-1006
▁mem	-1007
▁used	-1008
▁commun	-1009
ep	-1010
olog	-1011
ious	-1012
▁post	-1013
▁early	-1014
cept	-1015
year	-1016
▁cash	-1017
▁polic	-1018
▁health	-1019
▁opp	-1020
ately	-1021
▁admin	-1022
quarter	-1023
▁administr	-1024
▁brok	-1025
▁level	-1026
▁costs	-1027
les	-1028
▁john	-1029
▁strong	-1030
imes	-1031
ving	-1032
▁home	-1033
▁might	-1034
rug	-1035
▁chang	-1036
▁compet	-1037
▁friday	-1038
▁support	-1039
ume	-1040
▁director	-1041
ger	-1042
▁traders	-1043
▁aff	-1044
ators	-1045
erc	-1046
▁run	-1047
▁six	-1048
aren	-1049
bers	-1050
▁pos	-1051
▁committ	-1052
▁futures	-1053
pr	-1054
round	-1055
gest	-1056
ised	-1057
▁added	-1058
▁office	-1059
▁special	-1060
ful	-1061
ward	-1062
▁city	-1063
▁fact	-1064
▁californ	-1065
▁dam	-1066
▁suc	-1067
▁sovi	-1068
▁number	-1069
▁holding	-1070
▁former	-1071
ife	-1072
▁hal	-1073
▁officer	-1074
▁late	-1075
▁short	-1076
way	-1077
ready	-1078
ufact	-1079
▁already	-1080
▁manufact	-1081
▁previous	-1082
▁least	-1083
▁assets	-1084
▁california	-1085
aim	-1086
▁med	-1087
▁pet	-1088
▁wall	-1089
▁operating	-1090
onal	-1091
▁fam	-1092
▁spokesman	-1093
ults	-1094
▁tal	-1095
▁belie	-1096
▁agency	-1097
ri	-1098
thers	-1099
▁partic	-1100
▁british	-1101
ev	-1102
▁open	-1103
▁const	-1104
▁ger	-1105
▁too	-1106
▁based	-1107
▁start	-1108
▁fur	-1109
ittle	-1110
▁case	-1111
eep	-1112
ized	-1113
▁old	-1114
▁value	-1115
elf	-1116
anding	-1117
▁consum	-1118
▁september	-1119
▁fac	-1120
▁same	-1121
▁mach	-1122
til	-1123
land	-1124
ission	-1125
▁until	-1126
▁det	-1127
▁vot	-1128
ential	-1129
ames	-1130
bert	-1131
▁close	-1132
▁stake	-1133
▁union	-1134
▁street	-1135
▁result	-1136
az	-1137
▁west	-1138
▁services	-1139
ees	-1140
▁going	-1141
▁press	-1142
▁try	-1143
▁port	-1144
▁wr	-1145
▁eas	-1146
▁today	-1147
▁pa	-1148
▁prom	-1149
▁great	-1150
▁little	-1151
vers	-1152
▁ended	-1153
▁stand	-1154
ky	-1155
ret	-1156
ateg	-1157
▁ris	-1158
wh	-1159
ago	-1160
▁mil	-1161
▁distr	-1162
ll	-1163
▁pric	-1164
▁claim	-1165
▁certain	-1166
▁agreement	-1167
ands	-1168
▁propos	-1169
▁aug	-1170
ights	-1171
▁expect	-1172
▁lim	-1173
▁neg	-1174
▁fall	-1175
▁impro	-1176
▁point	-1177
ead	-1178
ient	-1179
▁poss	-1180
▁sett	-1181
iod	-1182
ders	-1183
▁see	-1184
▁period	-1185
▁rat	-1186
ection	-1187
▁service	-1188
▁know	-1189
▁cust	-1190
▁annual	-1191
ages	-1192
ense	-1193
▁priv	-1194
▁subs	-1195
bs	-1196
▁maker	-1197
▁south	-1198
ited	-1199
ived	-1200
thing	-1201
▁prot	-1202
▁earth	-1203
▁called	-1204
ody	-1205
ners	-1206
▁opt	-1207
▁gold	-1208
▁results	-1209
▁bas	-1210
▁agreed	-1211
▁custom	-1212
▁administration	-1213
▁ca	-1214
▁set	-1215
▁here	-1216
erg	-1217
▁wo	-1218
▁play	-1219
▁lt	-1220
▁ful	-1221
▁without	-1222
▁drug	-1223
ces	-1224
term	-1225
▁met	-1226
▁airl	-1227
▁infl	-1228
▁mort	-1229
▁canad	-1230
▁acquis	-1231
▁account	-1232
▁economy	-1233
▁problems	-1234
▁corporate	-1235
▁tex	-1236
▁seem	-1237
▁offering	-1238
tern	-1239
▁bar	-1240
▁country	-1241
cr	-1242
▁av	-1243
▁junk	-1244
▁regul	-1245
▁shareh	-1246
ications	-1247
▁production	-1248
▁effect	-1249
▁record	-1250
▁transact	-1251
▁loans	-1252
▁buying	-1253
▁import	-1254
▁policy	-1255
▁industrial	-1256
ump	-1257
arent	-1258
ark	-1259
▁cre	-1260
▁half	-1261
▁political	-1262
ss	-1263
ocr	-1264
▁conf	-1265
▁fail	-1266
▁lab	-1267
▁firms	-1268
▁building	-1269
med	-1270
▁alth	-1271
▁although	-1272
ones	-1273
▁large	-1274
▁whether	-1275
▁increased	-1276
ub	-1277
ten	-1278
ason	-1279
▁seek	-1280
▁likely	-1281
▁members	-1282
▁compared	-1283
cy	-1284
▁hand	-1285
▁allow	-1286
▁notes	-1287
▁repres	-1288
▁recently	-1289
▁committee	-1290
▁ge	-1291
▁further	-1292
▁begin	-1293
▁order	-1294
yn	-1295
ath	-1296
aged	-1297
ints	-1298
▁ask	-1299
▁mortg	-1300
▁te	-1301
ases	-1302
▁fig	-1303
▁lat	-1304
▁life	-1305
▁democr	-1306
ured	-1307
▁line	-1308
▁activ	-1309
▁test	-1310
▁charg	-1311
▁right	-1312
▁monday	-1313
▁soviet	-1314
sp	-1315
▁yet	-1316
ology	-1317
▁around	-1318
▁strateg	-1319
▁continue	-1320
▁my	-1321
isco	-1322
▁hop	-1323
ondon	-1324
▁london	-1325
▁earthqu	-1326
▁li	-1327
▁bene	-1328
▁quest	-1329
▁reach	-1330
ina	-1331
par	-1332
▁mc	-1333
▁invol	-1334
▁losses	-1335
▁hard	-1336
▁plant	-1337
▁points	-1338
▁found	-1339
▁volume	-1340
▁loc	-1341
osite	-1342
▁august	-1343
▁ltd	-1344
▁sug	-1345
▁paper	-1346
▁selling	-1347
▁dat	-1348
▁camp	-1349
itions	-1350
▁clear	-1351
▁differ	-1352
▁subsid	-1353
▁complet	-1354
▁judge	-1355
enn	-1356
ift	-1357
▁nov	-1358
▁must	-1359
ale	-1360
▁mean	-1361
▁expects	-1362
▁commission	-1363
ends	-1364
▁ual	-1365
ivers	-1366
▁trust	-1367
imin	-1368
▁come	-1369
▁slow	-1370
▁indic	-1371
▁times	-1372
ization	-1373
▁takeover	-1374
▁vi	-1375
▁los	-1376
▁ref	-1377
▁product	-1378
▁mag	-1379
▁hear	-1380
▁demand	-1381
▁proper	-1382
▁largest	-1383
▁declined	-1384
▁announced	-1385
▁earthquake	-1386
▁meas	-1387
▁ir	-1388
▁clos	-1389
▁refl	-1390
▁divid	-1391
inc	-1392
ize	-1393
ides	-1394
iscal	-1395
▁held	-1396
▁keep	-1397
▁fiscal	-1398
ins	-1399
ural	-1400
▁rul	-1401
▁systems	-1402
ling	-1403
ston	-1404
▁francisco	-1405
agu	-1406
oup	-1407
ron	-1408
▁weeks	-1409
▁white	-1410
igation	-1411
▁nation	-1412
aff	-1413
iel	-1414
ild	-1415
▁advert	-1416
▁making	-1417
▁priced	-1418
▁mot	-1419
▁senior	-1420
▁gas	-1421
▁som	-1422
▁become	-1423
▁change	-1424
▁workers	-1425
▁composite	-1426
ended	-1427
ercial	-1428
▁exper	-1429
▁inform	-1430
▁problem	-1431
▁businesses	-1432
▁commercial	-1433
ods	-1434
▁art	-1435
▁top	-1436
ought	-1437
ably	-1438
amed	-1439
uss	-1440
▁dom	-1441
▁gre	-1442
ially	-1443
▁give	-1444
sh	-1445
app	-1446
▁ext	-1447
▁comment	-1448
▁nearly	-1449
▁dou	-1450
▁mor	-1451
emical	-1452
▁series	-1453
▁association	-1454
▁development	-1455
▁dow	-1456
icago	-1457
▁char	-1458
▁drop	-1459
▁loan	-1460
standing	-1461
▁chicago	-1462
te	-1463
att	-1464
▁low	-1465
▁area	-1466
eed	-1467
isl	-1468
▁legisl	-1469
▁democrat	-1470
ivid	-1471
▁data	-1472
▁took	-1473
▁estimated	-1474
vent	-1475
▁hur	-1476
▁view	-1477
▁orders	-1478
emp	-1479
omm	-1480
▁lawy	-1481
▁nine	-1482
▁somet	-1483
▁retail	-1484
▁employees	-1485
ium	-1486
▁dro	-1487
▁your	-1488
▁jones	-1489
▁estate	-1490
▁broad	-1491
▁examp	-1492
▁attr	-1493
ned	-1494
▁design	-1495
▁decline	-1496
ator	-1497
ross	-1498
▁read	-1499
▁partners	-1500
get	-1501
atch	-1502
▁bud	-1503
▁mod	-1504
ither	-1505
▁shar	-1506
▁labor	-1507
▁senate	-1508
ave	-1509
ober	-1510
▁later	-1511
▁latest	-1512
▁benefit	-1513
iam	-1514
empt	-1515
ividual	-1516
▁example	-1517
▁individual	-1518
▁acquisition	-1519
▁coll	-1520
▁heav	-1521
▁tues	-1522
▁meeting	-1523
▁tuesday	-1524
ool	-1525
rupt	-1526
▁bre	-1527
▁east	-1528
▁ford	-1529
yp	-1530
ains	-1531
iting	-1532
▁expl	-1533
▁rich	-1534
▁texas	-1535
▁univers	-1536
▁ms	-1537
pite	-1538
▁sto	-1539
▁weak	-1540
▁despite	-1541
hor	-1542
ike	-1543
ugh	-1544
▁pot	-1545
▁paid	-1546
ession	-1547
▁proposal	-1548
▁currently	-1549
els	-1550
▁giv	-1551
▁others	-1552
▁offered	-1553
▁possible	-1554
▁represent	-1555
▁executives	-1556
oint	-1557
▁once	-1558
▁rise	-1559
acific	-1560
▁steel	-1561
hington	-1562
▁robert	-1563
▁proposed	-1564
▁purchase	-1565
▁washington	-1566
ply	-1567
▁never	-1568
▁amount	-1569
▁better	-1570
oti	-1571
ided	-1572
port	-1573
▁negoti	-1574
▁position	-1575
▁technology	-1576
▁investor	-1577
▁ant	-1578
▁cau	-1579
ively	-1580
ounts	-1581
▁future	-1582
▁spending	-1583
work	-1584
▁deli	-1585
▁geor	-1586
▁discl	-1587
▁private	-1588
▁chemical	-1589
most	-1590
▁coup	-1591
▁almost	-1592
▁changes	-1593
▁care	-1594
▁often	-1595
▁damage	-1596
▁school	-1597
▁received	-1598
ili	-1599
▁wom	-1600
▁pack	-1601
▁pass	-1602
▁terms	-1603
fol	-1604
uly	-1605
ears	-1606
▁pat	-1607
▁mich	-1608
▁sing	-1609
ically	-1610
▁named	-1611
▁north	-1612
▁states	-1613
▁october	-1614
▁process	-1615
▁mortgage	-1616
▁magaz	-1617
▁restruct	-1618
iron	-1619
▁got	-1620
▁ill	-1621
▁lot	-1622
▁particular	-1623
ony	-1624
▁tv	-1625
▁free	-1626
etting	-1627
▁black	-1628
▁filed	-1629
▁charge	-1630
▁customers	-1631
▁suit	-1632
▁toky	-1633
▁within	-1634
▁decision	-1635
▁information	-1636
▁ob	-1637
tain	-1638
▁sol	-1639
▁boost	-1640
ilities	-1641
▁publish	-1642
▁force	-1643
▁rights	-1644
▁defense	-1645
▁include	-1646
ety	-1647
ley	-1648
▁env	-1649
▁init	-1650
▁mass	-1651
▁division	-1652
▁let	-1653
ipment	-1654
▁america	-1655
rodu	-1656
▁nat	-1657
▁prob	-1658
▁step	-1659
▁vent	-1660
▁subsidi	-1661
ove	-1662
▁crit	-1663
▁began	-1664
▁enough	-1665
▁success	-1666
itr	-1667
put	-1668
▁came	-1669
▁hour	-1670
ruction	-1671
▁author	-1672
▁network	-1673
▁suggest	-1674
icip	-1675
▁mid	-1676
▁unl	-1677
ients	-1678
▁budget	-1679
▁trying	-1680
▁outstanding	-1681
orney	-1682
▁told	-1683
▁environ	-1684
▁attorney	-1685
▁equipment	-1686
ael	-1687
▁full	-1688
pl	-1689
▁colum	-1690
▁gains	-1691
▁warner	-1692
▁portfol	-1693
▁industries	-1694
fic	-1695
ips	-1696
▁la	-1697
▁arg	-1698
▁typ	-1699
▁dropped	-1700
▁consumer	-1701
▁potential	-1702
gel	-1703
▁james	-1704
▁joint	-1705
▁makes	-1706
▁united	-1707
▁programs	-1708
▁win	-1709
▁july	-1710
▁computers	-1711
▁environment	-1712
▁transaction	-1713
ting	-1714
▁dre	-1715
▁pan	-1716
▁accept	-1717
▁banking	-1718
▁european	-1719
just	-1720
▁dav	-1721
▁separ	-1722
▁broker	-1723
▁finance	-1724
▁signific	-1725
▁following	-1726
aguar	-1727
▁best	-1728
estern	-1729
ibuted	-1730
▁local	-1731
▁tokyo	-1732
▁equity	-1733
▁jaguar	-1734
▁consult	-1735
▁provide	-1736
▁inflation	-1737
val	-1738
ways	-1739
ified	-1740
itive	-1741
▁hous	-1742
▁trou	-1743
▁settle	-1744
▁improve	-1745
▁additional	-1746
acts	-1747
▁able	-1748
▁soon	-1749
▁secret	-1750
▁managers	-1751
▁personal	-1752
▁red	-1753
▁conn	-1754
▁list	-1755
▁action	-1756
▁leaders	-1757
▁important	-1758
▁shareholders	-1759
▁sent	-1760
ortion	-1761
ison	-1762
ution	-1763
▁appe	-1764
▁germ	-1765
▁pred	-1766
▁claims	-1767
▁charges	-1768
▁instead	-1769
▁university	-1770
▁away	-1771
▁units	-1772
ys	-1773
▁har	-1774
▁dollars	-1775
▁project	-1776
▁financing	-1777
pec	-1778
cast	-1779
ness	-1780
▁sour	-1781
▁defic	-1782
▁march	-1783
▁sched	-1784
▁things	-1785
▁convert	-1786
▁significant	-1787
▁construction	-1788
▁es	-1789
ilar	-1790
▁risk	-1791
▁dealers	-1792
▁manager	-1793
▁similar	-1794
▁continued	-1795
▁marketing	-1796
ont	-1797
ories	-1798
▁pract	-1799
erve	-1800
itor	-1801
▁caus	-1802
▁soft	-1803
▁youn	-1804
▁asked	-1805
▁bills	-1806
▁engine	-1807
ane	-1808
ixed	-1809
mark	-1810
ience	-1811
▁auto	-1812
isions	-1813
ulation	-1814
▁adjust	-1815
▁increasing	-1816
irc	-1817
ublic	-1818
▁circ	-1819
ensive	-1820
▁place	-1821
▁family	-1822
▁food	-1823
▁june	-1824
▁whose	-1825
▁believe	-1826
cl	-1827
rel	-1828
▁quot	-1829
▁above	-1830
▁advertising	-1831
ush	-1832
ered	-1833
estic	-1834
▁below	-1835
▁raise	-1836
▁western	-1837
uge	-1838
▁pil	-1839
▁sav	-1840
▁lost	-1841
▁avail	-1842
▁posted	-1843
▁getting	-1844
▁question	-1845
▁aid	-1846
▁thr	-1847
▁face	-1848
▁team	-1849
▁angel	-1850
▁china	-1851
▁taken	-1852
ability	-1853
▁slight	-1854
be	-1855
▁organ	-1856
▁fourth	-1857
▁rather	-1858
▁stores	-1859
▁discuss	-1860
ism	-1861
cent	-1862
▁via	-1863
idence	-1864
▁require	-1865
▁contracts	-1866
ware	-1867
▁sit	-1868
▁base	-1869
▁electron	-1870
▁included	-1871
▁security	-1872
ival	-1873
▁flo	-1874
▁legal	-1875
▁boston	-1876
▁margin	-1877
▁reason	-1878
▁figures	-1879
▁options	-1880
▁restructuring	-1881
mer	-1882
anch	-1883
▁led	-1884
▁mrs	-1885
orrow	-1886
▁prof	-1887
▁quick	-1888
▁volat	-1889
▁reports	-1890
▁subsidiary	-1891
▁fo	-1892
ister	-1893
▁left	-1894
▁noted	-1895
▁using	-1896
urs	-1897
ields	-1898
while	-1899
▁resign	-1900
▁working	-1901
▁meanwhile	-1902
ges	-1903
the	-1904
duct	-1905
uing	-1906
▁bad	-1907
▁jump	-1908
ficult	-1909
▁class	-1910
▁holders	-1911
▁countries	-1912
▁difficult	-1913
▁manufactur	-1914
aps	-1915
▁wa	-1916
arily	-1917
▁find	-1918
▁along	-1919
▁subst	-1920
▁effort	-1921
▁prefer	-1922
▁angeles	-1923
▁savings	-1924
▁william	-1925
▁ut	-1926
bled	-1927
itary	-1928
▁alle	-1929
▁comb	-1930
▁talk	-1931
▁cases	-1932
▁bought	-1933
▁itself	-1934
▁express	-1935
▁approved	-1936
▁probably	-1937
▁republic	-1938
▁available	-1939
▁portfolio	-1940
▁statement	-1941
ibm	-1942
hone	-1943
lish	-1944
▁ibm	-1945
▁pop	-1946
▁sum	-1947
▁hist	-1948
▁plun	-1949
▁block	-1950
▁break	-1951
▁staff	-1952
▁lawyers	-1953
▁pacific	-1954
▁percent	-1955
▁beh	-1956
▁hit	-1957
▁canc	-1958
▁viol	-1959
▁david	-1960
▁standard	-1961
unch	-1962
ering	-1963
erves	-1964
▁cond	-1965
cement	-1966
uation	-1967
▁goods	-1968
▁center	-1969
▁parent	-1970
▁introdu	-1971
▁reached	-1972
▁increases	-1973
ke	-1974
ards	-1975
▁cars	-1976
▁efforts	-1977
▁airlines	-1978
▁transport	-1979
osp	-1980
▁nec	-1981
ordin	-1982
thern	-1983
▁bell	-1984
▁pret	-1985
▁child	-1986
▁telep	-1987
▁advanc	-1988
▁either	-1989
▁germany	-1990
▁dividend	-1991
▁domestic	-1992
back	-1993
▁wed	-1994
epend	-1995
▁book	-1996
atives	-1997
▁known	-1998
▁owners	-1999
▁deficit	-2000
▁independ	-2001
nal	-2002
▁fu	-2003
▁ur	-2004
ring	-2005
▁dev	-2006
▁jour	-2007
▁talks	-2008
▁journal	-2009
rill	-2010
side	-2011
time	-2012
▁won	-2013
ension	-2014
▁telev	-2015
▁reduce	-2016
▁attempt	-2017
▁predict	-2018
▁proceed	-2019
bitr	-2020
icle	-2021
aster	-2022
▁calls	-2023
▁groups	-2024
▁having	-2025
▁saying	-2026
▁reserve	-2027
▁different	-2028
▁secretary	-2029
▁previously	-2030
▁vet	-2031
▁laws	-2032
▁proj	-2033
▁given	-2034
▁party	-2035
▁restr	-2036
▁canada	-2037
▁gained	-2038
▁approval	-2039
▁payments	-2040
▁telephone	-2041
ga	-2042
▁bay	-2043
based	-2044
pping	-2045
▁thom	-2046
▁energ	-2047
▁eastern	-2048
▁looking	-2049
▁succeed	-2050
by	-2051
bia	-2052
▁fav	-2053
▁kid	-2054
arant	-2055
forman	-2056
▁frank	-2057
▁mater	-2058
▁overs	-2059
▁guarant	-2060
▁profits	-2061
▁schedul	-2062
▁material	-2063
▁manufacturing	-2064
lex	-2065
used	-2066
▁ide	-2067
ained	-2068
▁targ	-2069
▁cover	-2070
▁biggest	-2071
▁canadian	-2072
ier	-2073
elves	-2074
▁helped	-2075
▁acquired	-2076
▁slightly	-2077
▁investments	-2078
ino	-2079
ott	-2080
▁unc	-2081
▁miss	-2082
▁poor	-2083
▁rele	-2084
▁autom	-2085
▁count	-2086
▁seven	-2087
▁raised	-2088
▁struct	-2089
▁respons	-2090
▁bankrupt	-2091
▁strategy	-2092
▁directors	-2093
up	-2094
aign	-2095
▁den	-2096
▁jan	-2097
▁prem	-2098
▁depos	-2099
▁marks	-2100
▁measure	-2101
▁campaign	-2102
▁machines	-2103
imum	-2104
▁why	-2105
▁vict	-2106
▁deter	-2107
▁coming	-2108
▁venture	-2109
▁military	-2110
▁institute	-2111
▁percentage	-2112
▁television	-2113
ery	-2114
▁sat	-2115
anged	-2116
ustral	-2117
ibility	-2118
▁makers	-2119
▁threat	-2120
formance	-2121
▁airline	-2122
▁austral	-2123
▁clients	-2124
▁medical	-2125
▁performance	-2126
▁ve	-2127
▁tell	-2128
▁heavy	-2129
▁study	-2130
▁surpr	-2131
▁energy	-2132
▁german	-2133
▁britain	-2134
▁abortion	-2135
▁electric	-2136
▁property	-2137
▁gm	-2138
▁name	-2139
▁single	-2140
▁growing	-2141
▁interests	-2142
▁relations	-2143
ify	-2144
medi	-2145
wide	-2146
▁foc	-2147
▁vis	-2148
ences	-2149
▁minor	-2150
▁failed	-2151
▁remains	-2152
▁magazine	-2153
▁estimates	-2154
▁something	-2155
▁particularly	-2156
▁communications	-2157
wr	-2158
gth	-2159
ots	-2160
ude	-2161
▁job	-2162
▁lyn	-2163
▁fees	-2164
▁tend	-2165
▁went	-2166
▁gener	-2167
▁arbitr	-2168
▁levels	-2169
▁limited	-2170
▁completed	-2171
▁bankruptcy	-2172
mon	-2173
nes	-2174
▁hum	-2175
attle	-2176
▁feel	-2177
▁hong	-2178
▁role	-2179
▁advis	-2180
earlier	-2181
▁michael	-2182
▁includes	-2183
▁au	-2184
ortun	-2185
▁pros	-2186
▁lines	-2187
▁young	-2188
▁activity	-2189
▁district	-2190
▁substant	-2191
▁legislation	-2192
cc	-2193
da	-2194
ler	-2195
itch	-2196
ances	-2197
▁farm	-2198
▁fren	-2199
▁event	-2200
▁toward	-2201
▁leading	-2202
▁merrill	-2203
▁columbia	-2204
sc	-2205
bach	-2206
▁wid	-2207
▁sect	-2208
▁stat	-2209
▁exist	-2210
ference	-2211
▁profess	-2212
▁reflect	-2213
▁seeking	-2214
uck	-2215
body	-2216
▁saf	-2217
ining	-2218
▁else	-2219
▁ever	-2220
▁whol	-2221
▁newsp	-2222
▁surve	-2223
▁wants	-2224
▁assist	-2225
▁person	-2226
▁apparent	-2227
▁currency	-2228
▁reserves	-2229
▁institutions	-2230
▁z	-2231
bed	-2232
ech	-2233
▁men	-2234
▁clim	-2235
▁educ	-2236
▁huge	-2237
▁prim	-2238
▁emerg	-2239
▁commod	-2240
▁scient	-2241
▁concerns	-2242
▁independent	-2243
ris	-2244
▁fre	-2245
▁var	-2246
▁owns	-2247
ention	-2248
▁bring	-2249
▁lynch	-2250
▁motor	-2251
▁taking	-2252
▁involved	-2253
▁scheduled	-2254
ral	-2255
anta	-2256
▁ren	-2257
ality	-2258
▁hold	-2259
▁kong	-2260
▁suff	-2261
▁susp	-2262
▁vote	-2263
▁build	-2264
▁doing	-2265
▁buyers	-2266
▁really	-2267
▁attract	-2268
▁outside	-2269
▁particip	-2270
▁pressure	-2271
▁restrict	-2272
▁transportation	-2273
head	-2274
pril	-2275
▁arr	-2276
arters	-2277
▁april	-2278
▁basis	-2279
▁always	-2280
▁longer	-2281
▁producers	-2282
aily	-2283
▁doc	-2284
▁daily	-2285
▁espec	-2286
▁leader	-2287
▁brokerage	-2288
▁especially	-2289
▁environmental	-2290
▁gi	-2291
crib	-2292
ties	-2293
▁hot	-2294
▁key	-2295
itors	-2296
▁means	-2297
▁prime	-2298
▁princ	-2299
▁plants	-2300
▁related	-2301
ule	-2302
ened	-2303
ises	-2304
view	-2305
▁adds	-2306
▁pain	-2307
▁phil	-2308
ablish	-2309
▁thems	-2310
▁acquire	-2311
▁richard	-2312
▁underwr	-2313
▁discount	-2314
▁projects	-2315
▁disclosed	-2316
▁establish	-2317
▁themselves	-2318
▁competition	-2319
xel	-2320
self	-2321
▁dig	-2322
▁lack	-2323
▁areas	-2324
▁colle	-2325
▁range	-2326
▁treat	-2327
▁drexel	-2328
▁impact	-2329
▁auction	-2330
▁central	-2331
▁conserv	-2332
▁conference	-2333
co	-2334
ew	-2335
ted	-2336
ills	-2337
iving	-2338
▁pick	-2339
▁repl	-2340
▁hours	-2341
▁largely	-2342
▁started	-2343
▁estimate	-2344
▁holdings	-2345
ico	-2346
▁bur	-2347
▁nav	-2348
▁sun	-2349
enses	-2350
▁bear	-2351
▁note	-2352
▁seems	-2353
▁thing	-2354
▁french	-2355
▁immedi	-2356
▁issued	-2357
▁supply	-2358
▁reduced	-2359
▁maintain	-2360
reau	-2361
▁vir	-2362
▁temp	-2363
▁rules	-2364
▁super	-2365
▁bureau	-2366
▁course	-2367
▁launch	-2368
▁morgan	-2369
▁promot	-2370
▁accounts	-2371
▁majority	-2372
tra	-2373
▁reb	-2374
▁excl	-2375
nesday	-2376
▁watch	-2377
▁needed	-2378
▁quickly	-2379
▁wednesday	-2380
▁congressional	-2381
ck	-2382
▁sk	-2383
aced	-2384
▁occ	-2385
alled	-2386
▁liqu	-2387
▁seen	-2388
▁fixed	-2389
▁detail	-2390
▁review	-2391
▁survey	-2392
▁princip	-2393
▁prosecut	-2394
▁distribut	-2395
▁interview	-2396
▁settlement	-2397
▁cit	-2398
ropri	-2399
▁done	-2400
▁disapp	-2401
▁traded	-2402
▁yields	-2403
▁december	-2404
▁community	-2405
▁generally	-2406
ai	-2407
den	-2408
ging	-2409
ored	-2410
▁ban	-2411
▁fri	-2412
▁pul	-2413
▁wal	-2414
iring	-2415
▁death	-2416
▁worth	-2417
▁volatility	-2418
▁manufacturers	-2419
tc	-2420
ape	-2421
aker	-2422
earson	-2423
ursday	-2424
▁carri	-2425
▁favor	-2426
▁parts	-2427
▁women	-2428
atively	-2429
▁receive	-2430
▁approach	-2431
▁shearson	-2432
▁thursday	-2433
▁beginning	-2434
aft	-2435
ann	-2436
ball	-2437
rist	-2438
▁bal	-2439
▁nas	-2440
▁soc	-2441
▁kind	-2442
rength	-2443
▁focus	-2444
▁human	-2445
▁limit	-2446
▁prosp	-2447
▁simply	-2448
▁social	-2449
▁imports	-2450
▁serious	-2451
▁thought	-2452
▁strength	-2453
▁situation	-2454
avel	-2455
oice	-2456
rate	-2457
▁hap	-2458
▁mov	-2459
▁plc	-2460
month	-2461
▁asset	-2462
▁eight	-2463
▁taxes	-2464
▁happen	-2465
▁respon	-2466
▁turned	-2467
▁brokers	-2468
▁natural	-2469
▁planned	-2470
▁premium	-2471
▁entertain	-2472
▁protection	-2473
▁convertible	-2474
▁prep	-2475
▁sure	-2476
veraged	-2477
▁filing	-2478
▁history	-2479
▁subject	-2480
▁recession	-2481
▁democratic	-2482
pre	-2483
▁er	-2484
▁veh	-2485
atory	-2486
index	-2487
▁cand	-2488
▁ahead	-2489
▁light	-2490
▁rally	-2491
▁space	-2492
▁changed	-2493
▁required	-2494
ph	-2495
sy	-2496
acy	-2497
▁ke	-2498
haps	-2499
▁aud	-2500
▁land	-2501
▁veto	-2502
▁crash	-2503
▁became	-2504
▁summer	-2505
▁target	-2506
▁perhaps	-2507
▁produce	-2508
▁returns	-2509
▁arbitrage	-2510
set	-2511
down	-2512
▁aim	-2513
▁hom	-2514
▁non	-2515
▁fair	-2516
▁ship	-2517
▁tren	-2518
aining	-2519
▁green	-2520
▁guber	-2521
▁moody	-2522
▁appear	-2523
▁caused	-2524
▁showed	-2525
▁advanced	-2526
▁benefits	-2527
▁software	-2528
▁considered	-2529
▁partnership	-2530
yal	-2531
rought	-2532
▁christ	-2533
▁france	-2534
▁resour	-2535
▁travel	-2536
▁exports	-2537
▁housing	-2538
▁anything	-2539
▁appropri	-2540
▁brothers	-2541
▁delivery	-2542
▁creditors	-2543
ama	-2544
gia	-2545
▁gl	-2546
iega	-2547
ming	-2548
▁avo	-2549
▁enc	-2550
▁hurt	-2551
▁park	-2552
▁carry	-2553
▁night	-2554
▁defend	-2555
▁francs	-2556
▁indeed	-2557
▁jumped	-2558
▁georgia	-2559
▁justice	-2560
▁noriega	-2561
▁request	-2562
▁preferred	-2563
eas	-2564
▁cbs	-2565
▁max	-2566
ather	-2567
where	-2568
▁hope	-2569
▁mess	-2570
▁room	-2571
▁side	-2572
▁stop	-2573
▁floor	-2574
▁owned	-2575
▁cancer	-2576
▁earned	-2577
▁necess	-2578
▁bankers	-2579
▁prevent	-2580
▁americans	-2581
▁tradition	-2582
▁continuing	-2583
▁entertainment	-2584
eb	-2585
off	-2586
mitt	-2587
older	-2588
▁fight	-2589
▁water	-2590
▁active	-2591
▁george	-2592
▁wanted	-2593
▁minimum	-2594
▁nothing	-2595
▁usually	-2596
▁children	-2597
▁shareholder	-2598
egr	-2599
orp	-2600
▁assum	-2601
▁media	-2602
▁moder	-2603
▁merger	-2604
▁closing	-2605
▁announcement	-2606
wom	-2607
ille	-2608
ville	-2609
woman	-2610
▁fast	-2611
▁oppos	-2612
▁pilots	-2613
▁digital	-2614
▁machine	-2615
▁smaller	-2616
▁evidence	-2617
▁minister	-2618
▁opportun	-2619
▁spokeswoman	-2620
idel	-2621
▁irs	-2622
▁squ	-2623
▁prior	-2624
▁resol	-2625
▁trial	-2626
▁peters	-2627
▁article	-2628
▁created	-2629
▁himself	-2630
▁sharply	-2631
▁continues	-2632
aph	-2633
ici	-2634
ires	-2635
ried	-2636
▁atl	-2637
▁cop	-2638
▁rad	-2639
acity	-2640
▁conv	-2641
▁quake	-2642
▁editor	-2643
▁partner	-2644
▁overseas	-2645
▁resources	-2646
ugo	-2647
etic	-2648
▁age	-2649
▁spe	-2650
share	-2651
▁cell	-2652
▁hugo	-2653
▁size	-2654
▁stay	-2655
▁tons	-2656
▁unch	-2657
▁pound	-2658
▁borrow	-2659
▁liquid	-2660
▁sector	-2661
▁source	-2662
▁thrift	-2663
▁initial	-2664
▁actually	-2665
▁unchanged	-2666
kn	-2667
bor	-2668
ham	-2669
mak	-2670
pper	-2671
▁hun	-2672
▁lit	-2673
▁ple	-2674
▁kill	-2675
▁norm	-2676
▁term	-2677
makers	-2678
▁encour	-2679
▁apparently	-2680
tim	-2681
uty	-2682
▁arm	-2683
aging	-2684
istic	-2685
onald	-2686
▁game	-2687
▁vers	-2688
encies	-2689
▁brand	-2690
▁exerc	-2691
▁sharp	-2692
▁entire	-2693
▁kidder	-2694
▁member	-2695
▁retire	-2696
▁anticip	-2697
▁session	-2698
▁directly	-2699
▁broadcast	-2700
▁quarterly	-2701
▁questions	-2702
▁conditions	-2703
▁regulators	-2704
▁transactions	-2705
eck	-2706
ault	-2707
cing	-2708
ters	-2709
▁civ	-2710
quent	-2711
▁poll	-2712
▁push	-2713
▁built	-2714
▁comes	-2715
▁giant	-2716
▁hopes	-2717
▁merch	-2718
▁petro	-2719
▁across	-2720
▁confir	-2721
▁believes	-2722
▁designed	-2723
bo	-2724
ban	-2725
uit	-2726
allen	-2727
▁kore	-2728
▁extra	-2729
▁field	-2730
▁moves	-2731
▁expand	-2732
▁export	-2733
▁tempor	-2734
▁challen	-2735
▁closely	-2736
▁decided	-2737
▁jr	-2738
idge	-2739
west	-2740
▁thus	-2741
▁final	-2742
▁react	-2743
▁commit	-2744
▁letter	-2745
▁partly	-2746
▁recomm	-2747
▁strike	-2748
▁produced	-2749
igin	-2750
utes	-2751
▁sho	-2752
ished	-2753
▁soci	-2754
▁sense	-2755
▁smith	-2756
▁woman	-2757
▁battle	-2758
▁behind	-2759
▁except	-2760
▁origin	-2761
▁paying	-2762
▁rising	-2763
▁running	-2764
▁response	-2765
▁separate	-2766
▁provision	-2767
▁uncertain	-2768
▁associates	-2769
▁economists	-2770
de	-2771
dr	-2772
agan	-2773
uary	-2774
▁nar	-2775
iding	-2776
istry	-2777
▁star	-2778
▁ways	-2779
market	-2780
▁concl	-2781
▁shows	-2782
▁altern	-2783
▁modest	-2784
▁brought	-2785
▁january	-2786
▁capacity	-2787
▁consumers	-2788
ats	-2789
lin	-2790
▁glo	-2791
oming	-2792
preme	-2793
▁flow	-2794
▁host	-2795
▁jobs	-2796
▁sony	-2797
ctions	-2798
ounter	-2799
ricane	-2800
▁fully	-2801
▁spent	-2802
▁spread	-2803
▁unless	-2804
▁ability	-2805
▁allowed	-2806
▁offices	-2807
▁supreme	-2808
▁democrats	-2809
▁effective	-2810
▁hurricane	-2811
▁leveraged	-2812
▁newspaper	-2813
▁operation	-2814
hman	-2815
▁gor	-2816
▁mun	-2817
▁idea	-2818
▁lear	-2819
▁rule	-2820
▁wage	-2821
bachev	-2822
icient	-2823
orning	-2824
▁civil	-2825
▁ident	-2826
▁influ	-2827
▁peter	-2828
▁commer	-2829
▁municip	-2830
▁willing	-2831
▁agencies	-2832
▁expenses	-2833
▁followed	-2834
▁specific	-2835
▁gorbachev	-2836
iec	-2837
▁che	-2838
▁mom	-2839
▁unf	-2840
▁penn	-2841
▁stan	-2842
▁delay	-2843
▁mount	-2844
▁tough	-2845
▁actual	-2846
▁debent	-2847
▁forced	-2848
▁season	-2849
▁alleged	-2850
▁funding	-2851
▁emergency	-2852
▁disappoint	-2853
rem	-2854
wer	-2855
ening	-2856
mitted	-2857
▁whole	-2858
▁access	-2859
▁elimin	-2860
▁pretax	-2861
▁present	-2862
▁organization	-2863
eg	-2864
ford	-2865
▁mex	-2866
▁seg	-2867
▁dink	-2868
▁fear	-2869
▁cable	-2870
▁enter	-2871
▁figure	-2872
▁quoted	-2873
▁victim	-2874
▁deliver	-2875
▁dinkins	-2876
▁package	-2877
▁pension	-2878
▁popular	-2879
▁various	-2880
no	-2881
▁hut	-2882
▁mut	-2883
▁tog	-2884
▁tom	-2885
erate	-2886
lying	-2887
▁ariz	-2888
▁holds	-2889
▁needs	-2890
▁disput	-2891
▁matter	-2892
▁mutual	-2893
▁narrow	-2894
▁offset	-2895
▁reagan	-2896
▁signed	-2897
▁farmers	-2898
▁quality	-2899
▁resident	-2900
▁together	-2901
▁contribut	-2902
▁economist	-2903
▁underwrit	-2904
▁facilities	-2905
▁introduced	-2906
yond	-2907
▁flat	-2908
▁link	-2909
▁pict	-2910
▁purs	-2911
▁cause	-2912
▁critic	-2913
▁exceed	-2914
▁headqu	-2915
▁spring	-2916
▁morning	-2917
▁payment	-2918
▁commerce	-2919
▁moreover	-2920
▁constitut	-2921
▁headquarters	-2922
ems	-2923
▁eg	-2924
urch	-2925
▁coop	-2926
▁gave	-2927
▁county	-2928
▁decade	-2929
▁plunge	-2930
▁poland	-2931
▁ruling	-2932
▁valued	-2933
▁greater	-2934
▁instance	-2935
▁activities	-2936
▁q	-2937
ady	-2938
▁ap	-2939
anges	-2940
eless	-2941
icles	-2942
intex	-2943
▁hund	-2944
▁jack	-2945
▁lang	-2946
▁leave	-2947
▁match	-2948
▁matur	-2949
▁thous	-2950
counter	-2951
▁lehman	-2952
▁opened	-2953
▁qintex	-2954
▁trades	-2955
▁elected	-2956
▁johnson	-2957
▁margins	-2958
▁section	-2959
▁ministry	-2960
▁resigned	-2961
▁researchers	-2962
ask	-2963
ica	-2964
lear	-2965
▁rum	-2966
▁sci	-2967
iliar	-2968
▁fill	-2969
overed	-2970
▁santa	-2971
▁takes	-2972
ination	-2973
▁compar	-2974
▁forces	-2975
▁sports	-2976
▁respond	-2977
▁declines	-2978
▁existing	-2979
▁familiar	-2980
▁investig	-2981
▁australia	-2982
▁developed	-2983
▁separately	-2984
▁institutional	-2985
olid	-2986
issan	-2987
▁adop	-2988
▁appl	-2989
▁avoid	-2990
▁moved	-2991
▁spend	-2992
▁track	-2993
eration	-2994
▁branch	-2995
▁instru	-2996
▁machin	-2997
▁nissan	-2998
▁obtain	-2999
▁safety	-3000
▁thomas	-3001
▁valley	-3002
▁overall	-3003
▁contributed	-3004
arm	-3005
omon	-3006
▁ach	-3007
▁sem	-3008
▁tum	-3009
▁uns	-3010
▁burn	-3011
▁chain	-3012
▁appeal	-3013
▁crimin	-3014
▁intell	-3015
▁trader	-3016
▁widely	-3017
▁conduct	-3018
▁describ	-3019
▁salomon	-3020
▁managing	-3021
▁southern	-3022
▁sometimes	-3023
▁conservative	-3024
cher	-3025
▁doz	-3026
▁scr	-3027
▁shi	-3028
▁cuts	-3029
▁guil	-3030
▁leav	-3031
▁mits	-3032
▁warr	-3033
▁baker	-3034
▁teach	-3035
▁candid	-3036
▁create	-3037
▁forecast	-3038
▁authority	-3039
▁electronic	-3040
▁provisions	-3041
use	-3042
▁oh	-3043
lett	-3044
▁lou	-3045
▁feat	-3046
▁hosp	-3047
▁road	-3048
▁roll	-3049
ective	-3050
uments	-3051
▁clean	-3052
▁deals	-3053
▁write	-3054
▁beyond	-3055
▁larger	-3056
▁finding	-3057
▁totaled	-3058
▁hospital	-3059
▁improved	-3060
▁provided	-3061
▁provides	-3062
▁subordin	-3063
▁indicated	-3064
▁debentures	-3065
▁opposition	-3066
▁properties	-3067
▁reflecting	-3068
▁relatively	-3069
▁electronics	-3070
▁engineering	-3071
▁professional	-3072
aud	-3073
hen	-3074
men	-3075
ney	-3076
▁goes	-3077
▁merc	-3078
▁fraud	-3079
▁hands	-3080
▁works	-3081
▁backed	-3082
▁appears	-3083
▁measures	-3084
▁policies	-3085
▁materials	-3086
▁speculation	-3087
▁substantial	-3088
ob	-3089
cil	-3090
▁ce	-3091
apid	-3092
▁inj	-3093
▁banc	-3094
▁blue	-3095
▁date	-3096
▁mail	-3097
▁town	-3098
▁unus	-3099
▁afric	-3100
▁alone	-3101
▁rapid	-3102
▁rough	-3103
▁brands	-3104
▁highly	-3105
▁houses	-3106
▁insist	-3107
▁motors	-3108
▁offers	-3109
▁reform	-3110
▁climbed	-3111
▁council	-3112
▁internal	-3113
▁negative	-3114
▁proceeds	-3115
▁purchases	-3116
▁individuals	-3117
ux	-3118
daq	-3119
▁ii	-3120
▁op	-3121
iver	-3122
line	-3123
▁bit	-3124
▁cos	-3125
▁feb	-3126
▁hon	-3127
▁feet	-3128
▁brown	-3129
▁cross	-3130
▁image	-3131
▁pence	-3132
▁adding	-3133
▁attack	-3134
▁barrel	-3135
▁hutton	-3136
▁integr	-3137
▁nasdaq	-3138
▁stanley	-3139
▁version	-3140
▁complain	-3141
▁planning	-3142
▁successful	-3143
▁investigation	-3144
gs	-3145
bal	-3146
ogn	-3147
orm	-3148
▁je	-3149
come	-3150
road	-3151
▁don	-3152
ental	-3153
▁cray	-3154
▁draw	-3155
▁flor	-3156
called	-3157
▁miles	-3158
▁store	-3159
▁story	-3160
▁trend	-3161
▁affair	-3162
▁invent	-3163
▁lawyer	-3164
▁passed	-3165
▁recogn	-3166
▁amounts	-3167
▁carrier	-3168
▁perform	-3169
▁someone	-3170
▁customer	-3171
▁disaster	-3172
▁practice	-3173
▁students	-3174
▁municipal	-3175
▁treatment	-3176
▁appropriations	-3177
ns	-3178
aur	-3179
eth	-3180
atic	-3181
gers	-3182
▁ans	-3183
▁blo	-3184
▁sil	-3185
aceut	-3186
aries	-3187
gains	-3188
overy	-3189
▁dead	-3190
▁fire	-3191
▁jury	-3192
▁scen	-3193
▁cited	-3194
▁drugs	-3195
▁louis	-3196
▁pharm	-3197
▁chance	-3198
▁double	-3199
▁lawson	-3200
▁option	-3201
▁rating	-3202
▁worked	-3203
▁charles	-3204
▁finally	-3205
▁restaur	-3206
aceutical	-3207
▁everyone	-3208
▁publicly	-3209
▁education	-3210
▁lawmakers	-3211
▁necessary	-3212
▁positions	-3213
▁consultant	-3214
▁interested	-3215
▁regulatory	-3216
▁pharmaceutical	-3217
na	-3218
wa	-3219
bur	-3220
wood	-3221
▁rej	-3222
ament	-3223
asing	-3224
ommun	-3225
▁bids	-3226
▁doub	-3227
▁ital	-3228
▁jose	-3229
▁bench	-3230
▁shift	-3231
▁stein	-3232
▁franch	-3233
▁moving	-3234
▁police	-3235
▁prompt	-3236
▁experts	-3237
▁neither	-3238
▁soviets	-3239
▁minority	-3240
▁rejected	-3241
▁commodity	-3242
▁standards	-3243
▁attributed	-3244
▁republican	-3245
ommunications	-3246
▁negotiations	-3247
syl	-3248
tin	-3249
ster	-3250
▁ads	-3251
▁mal	-3252
▁mur	-3253
▁otc	-3254
▁oun	-3255
▁tur	-3256
apers	-3257
organ	-3258
▁bott	-3259
▁foot	-3260
▁trip	-3261
ulture	-3262
▁swiss	-3263
▁wrong	-3264
▁affili	-3265
▁moment	-3266
▁raising	-3267
▁reorgan	-3268
▁replace	-3269
▁consolid	-3270
▁attention	-3271
▁accounting	-3272
▁eventually	-3273
▁competitors	-3274
▁expectations	-3275
▁relationship	-3276
▁reorganization	-3277
to	-3278
ona	-3279
hatt	-3280
icon	-3281
leum	-3282
▁ber	-3283
▁ess	-3284
▁gro	-3285
etics	-3286
house	-3287
itten	-3288
▁corn	-3289
▁fuel	-3290
▁perm	-3291
▁repe	-3292
hattan	-3293
▁grand	-3294
▁mexico	-3295
▁mostly	-3296
▁sought	-3297
▁factors	-3298
▁heavily	-3299
▁society	-3300
▁northern	-3301
▁dividends	-3302
▁manhattan	-3303
▁petroleum	-3304
▁remaining	-3305
▁retirement	-3306
▁considering	-3307
he	-3308
ko	-3309
ght	-3310
vem	-3311
ifts	-3312
▁lic	-3313
▁obl	-3314
▁spl	-3315
apter	-3316
etary	-3317
ption	-3318
usion	-3319
▁ones	-3320
estate	-3321
rovers	-3322
vember	-3323
▁domin	-3324
▁traff	-3325
▁affect	-3326
▁anyone	-3327
▁friend	-3328
▁giving	-3329
▁output	-3330
▁aggress	-3331
▁appoint	-3332
▁chapter	-3333
▁opening	-3334
▁monetary	-3335
▁november	-3336
▁magazines	-3337
▁ownership	-3338
▁typically	-3339
▁controvers	-3340
▁immediately	-3341
ha	-3342
com	-3343
pan	-3344
ulf	-3345
▁di	-3346
agon	-3347
▁saw	-3348
▁tor	-3349
ading	-3350
▁film	-3351
▁gulf	-3352
▁lend	-3353
▁pent	-3354
ansion	-3355
▁items	-3356
▁risks	-3357
▁bridge	-3358
▁copper	-3359
▁events	-3360
idelines	-3361
▁victims	-3362
▁criminal	-3363
▁pentagon	-3364
▁exchanges	-3365
▁developing	-3366
▁litigation	-3367
▁scientists	-3368
▁improvement	-3369
▁opportunity	-3370
iff	-3371
itz	-3372
str	-3373
▁nb	-3374
asts	-3375
care	-3376
lied	-3377
scow	-3378
▁abs	-3379
▁cas	-3380
▁cat	-3381
▁fuj	-3382
▁lin	-3383
▁usx	-3384
asons	-3385
craft	-3386
▁bask	-3387
▁cert	-3388
▁shop	-3389
▁tour	-3390
▁gives	-3391
▁neigh	-3392
▁moscow	-3393
▁bidding	-3394
▁college	-3395
▁england	-3396
▁minutes	-3397
▁monthly	-3398
▁pending	-3399
▁aircraft	-3400
▁complete	-3401
▁regional	-3402
▁concerned	-3403
▁reduction	-3404
▁everything	-3405
▁acquisitions	-3406
br	-3407
▁ey	-3408
loyd	-3409
ucks	-3410
▁cho	-3411
▁rob	-3412
▁tit	-3413
isers	-3414
▁gets	-3415
▁lose	-3416
▁piec	-3417
backed	-3418
icians	-3419
igence	-3420
▁aimed	-3421
▁homes	-3422
▁lloyd	-3423
▁owner	-3424
▁speed	-3425
▁truck	-3426
▁divers	-3427
▁excess	-3428
▁clearly	-3429
▁contain	-3430
▁convent	-3431
▁deposit	-3432
▁details	-3433
▁protect	-3434
▁trouble	-3435
▁underst	-3436
▁determin	-3437
▁principal	-3438
▁traditional	-3439
fr	-3440
yc	-3441
aded	-3442
akes	-3443
lies	-3444
▁sam	-3445
iling	-3446
osure	-3447
▁ball	-3448
▁amend	-3449
▁apple	-3450
▁coast	-3451
▁drive	-3452
▁equal	-3453
▁sources	-3454
▁maturity	-3455
▁original	-3456
▁thatcher	-3457
▁certainly	-3458
▁mortgages	-3459
▁experience	-3460
▁broadcasting	-3461
▁restrictions	-3462
zo	-3463
▁sy	-3464
▁ul	-3465
draw	-3466
ibas	-3467
rote	-3468
▁mcc	-3469
▁sli	-3470
erous	-3471
inese	-3472
▁easy	-3473
▁mill	-3474
▁opin	-3475
▁paul	-3476
▁purp	-3477
▁sort	-3478
▁true	-3479
▁crime	-3480
▁hotel	-3481
▁panel	-3482
▁plast	-3483
▁ultim	-3484
▁wrote	-3485
▁advant	-3486
▁couple	-3487
▁debate	-3488
▁ending	-3489
▁global	-3490
▁specul	-3491
▁chinese	-3492
▁paribas	-3493
▁parties	-3494
▁regular	-3495
▁believed	-3496
▁certific	-3497
▁combined	-3498
▁controls	-3499
▁facility	-3500
▁troubled	-3501
▁withdraw	-3502
▁primarily	-3503
▁thousands	-3504
▁increasingly	-3505
▁requirements	-3506
▁subordinated	-3507
equ	-3508
isf	-3509
oth	-3510
mond	-3511
ying	-3512
▁fel	-3513
▁grew	-3514
▁ohio	-3515
uclear	-3516
▁mayor	-3517
▁print	-3518
▁split	-3519
▁sugar	-3520
▁consist	-3521
▁players	-3522
▁ratings	-3523
▁segment	-3524
▁prepared	-3525
▁vehicles	-3526
▁weakness	-3527
▁involving	-3528
▁difference	-3529
bby	-3530
ios	-3531
▁aer	-3532
▁mae	-3533
▁mus	-3534
▁sel	-3535
▁syn	-3536
iders	-3537
▁bull	-3538
▁virt	-3539
onents	-3540
▁carol	-3541
▁chips	-3542
▁korea	-3543
▁movie	-3544
▁quite	-3545
▁scand	-3546
▁tried	-3547
▁resist	-3548
▁arizona	-3549
▁centers	-3550
▁experim	-3551
▁goldman	-3552
▁highest	-3553
▁revised	-3554
▁roughly	-3555
▁statist	-3556
▁producer	-3557
▁tomorrow	-3558
▁chemicals	-3559
▁expansion	-3560
▁technical	-3561
▁publishing	-3562
▁prosecutors	-3563
ewe	-3564
uct	-3565
bber	-3566
icar	-3567
ishi	-3568
▁coc	-3569
▁pip	-3570
▁vac	-3571
otive	-3572
▁gene	-3573
▁writ	-3574
ubishi	-3575
▁achie	-3576
▁defin	-3577
▁rated	-3578
▁sells	-3579
ewebber	-3580
▁cities	-3581
▁guilty	-3582
▁listed	-3583
▁actions	-3584
▁damaged	-3585
▁nations	-3586
▁numbers	-3587
▁plunged	-3588
▁settled	-3589
▁slowing	-3590
▁waiting	-3591
▁employee	-3592
▁launched	-3593
▁powerful	-3594
▁released	-3595
▁declining	-3596
▁expensive	-3597
▁automotive	-3598
▁consulting	-3599
▁mitsubishi	-3600
▁profitable	-3601
▁painewebber	-3602
apse	-3603
east	-3604
icts	-3605
▁ign	-3606
▁rub	-3607
▁tim	-3608
bling	-3609
▁amid	-3610
▁live	-3611
▁ster	-3612
▁tests	-3613
oration	-3614
quently	-3615
▁region	-3616
▁advance	-3617
▁failure	-3618
▁schools	-3619
▁collapse	-3620
▁manville	-3621
▁sterling	-3622
▁assistant	-3623
▁buildings	-3624
▁competitive	-3625
▁corporations	-3626
▁intelligence	-3627
ci	-3628
gl	-3629
arr	-3630
onto	-3631
▁eag	-3632
▁fle	-3633
allas	-3634
▁coal	-3635
▁gard	-3636
▁king	-3637
▁agric	-3638
▁award	-3639
▁downt	-3640
▁heart	-3641
▁illeg	-3642
▁radio	-3643
▁refin	-3644
▁steps	-3645
pacific	-3646
▁coupon	-3647
▁dallas	-3648
▁headed	-3649
▁charged	-3650
▁putting	-3651
▁showing	-3652
▁toronto	-3653
▁insurers	-3654
▁recovery	-3655
▁slowdown	-3656
▁purchased	-3657
▁associated	-3658
▁navigation	-3659
▁represents	-3660
▁surprising	-3661
▁republicans	-3662
col	-3663
eau	-3664
ida	-3665
sch	-3666
ute	-3667
xon	-3668
achs	-3669
dden	-3670
rael	-3671
reds	-3672
ries	-3673
vest	-3674
well	-3675
▁mic	-3676
▁obs	-3677
urred	-3678
▁prec	-3679
▁prud	-3680
▁rein	-3681
▁runs	-3682
ressed	-3683
▁apart	-3684
▁demon	-3685
▁dozen	-3686
▁exxon	-3687
▁maybe	-3688
▁phone	-3689
▁sachs	-3690
▁signs	-3691
▁israel	-3692
▁philip	-3693
▁placed	-3694
▁proced	-3695
▁sudden	-3696
▁trucks	-3697
▁values	-3698
▁voters	-3699
▁balance	-3700
▁campeau	-3701
▁convict	-3702
▁devices	-3703
▁effects	-3704
▁nuclear	-3705
▁portion	-3706
▁hundreds	-3707
▁documents	-3708
▁predicted	-3709
▁uncertainty	-3710
mb	-3711
ze	-3712
dle	-3713
ple	-3714
know	-3715
renz	-3716
▁oak	-3717
▁pen	-3718
igger	-3719
▁mind	-3720
▁plus	-3721
▁stem	-3722
▁surv	-3723
▁whom	-3724
▁brook	-3725
▁fears	-3726
▁krenz	-3727
▁paris	-3728
▁sears	-3729
issions	-3730
knowled	-3731
▁indian	-3732
▁unlike	-3733
▁affairs	-3734
▁complex	-3735
▁dispute	-3736
▁lending	-3737
▁primary	-3738
▁release	-3739
▁traffic	-3740
▁trigger	-3741
▁adjusted	-3742
▁affected	-3743
▁election	-3744
▁reflects	-3745
▁transfer	-3746
▁ventures	-3747
▁acknowled	-3748
▁elections	-3749
▁utilities	-3750
▁advertisers	-3751
▁underwriters	-3752
jo	-3753
hib	-3754
hol	-3755
ixt	-3756
oln	-3757
urt	-3758
yle	-3759
ixte	-3760
noon	-3761
rugg	-3762
▁cam	-3763
▁dut	-3764
▁lux	-3765
▁pit	-3766
erson	-3767
grade	-3768
oring	-3769
▁alan	-3770
▁fres	-3771
▁linc	-3772
▁prel	-3773
▁rock	-3774
▁breed	-3775
▁brief	-3776
▁doubt	-3777
▁fewer	-3778
▁intel	-3779
▁mixte	-3780
▁words	-3781
▁luxury	-3782
▁relief	-3783
▁strugg	-3784
▁surged	-3785
▁century	-3786
▁enterpr	-3787
▁lincoln	-3788
▁reasons	-3789
▁unusual	-3790
▁accepted	-3791
▁deposits	-3792
▁exercise	-3793
▁stations	-3794
▁trillion	-3795
▁afternoon	-3796
▁elsewhere	-3797
▁essential	-3798
▁proposals	-3799
vy	-3800
ror	-3801
sen	-3802
▁bi	-3803
bond	-3804
▁cds	-3805
▁mac	-3806
▁mcd	-3807
acter	-3808
ersey	-3809
▁crop	-3810
▁ease	-3811
▁mary	-3812
▁walk	-3813
urance	-3814
▁bells	-3815
▁color	-3816
▁faces	-3817
▁mixed	-3818
▁refer	-3819
▁usual	-3820
holders	-3821
▁accord	-3822
▁golden	-3823
▁jersey	-3824
▁pretty	-3825
▁tender	-3826
▁adviser	-3827
▁falling	-3828
▁annually	-3829
▁neighbor	-3830
▁communist	-3831
▁liability	-3832
▁residents	-3833
▁strategic	-3834
▁structure	-3835
▁virtually	-3836
▁australian	-3837
▁controlled	-3838
▁throughout	-3839
▁continental	-3840
▁established	-3841
▁significantly	-3842
af	-3843
dy	-3844
ila	-3845
sel	-3846
ords	-3847
▁nbc	-3848
▁wit	-3849
enced	-3850
ruary	-3851
▁alli	-3852
▁kept	-3853
▁wind	-3854
ambert	-3855
▁books	-3856
▁initi	-3857
▁model	-3858
▁nicar	-3859
▁ready	-3860
▁renew	-3861
▁sides	-3862
▁worry	-3863
▁client	-3864
▁deputy	-3865
▁metals	-3866
▁normal	-3867
▁accused	-3868
▁concent	-3869
▁counter	-3870
▁healthy	-3871
▁hearing	-3872
▁hostile	-3873
▁opposed	-3874
▁baseball	-3875
▁february	-3876
▁nicaragu	-3877
▁positive	-3878
▁starting	-3879
▁supplies	-3880
▁practices	-3881
▁guidelines	-3882
▁distribution	-3883
▁substantially	-3884
ete	-3885
▁du	-3886
anks	-3887
▁lee	-3888
▁sir	-3889
antic	-3890
▁fine	-3891
▁sear	-3892
▁shut	-3893
▁wide	-3894
▁seats	-3895
▁telec	-3896
▁conced	-3897
▁losing	-3898
▁mainfr	-3899
▁modern	-3900
▁seemed	-3901
▁signal	-3902
▁arrange	-3903
▁boosted	-3904
▁critics	-3905
▁involve	-3906
▁leaving	-3907
▁opinion	-3908
▁ordered	-3909
▁thrifts	-3910
▁finished	-3911
▁benchmark	-3912
▁franchise	-3913
▁confidence	-3914
▁defendants	-3915
▁certificates	-3916
aid	-3917
inn	-3918
pay	-3919
▁cru	-3920
▁ens	-3921
▁ham	-3922
burgh	-3923
▁beat	-3924
▁core	-3925
▁gone	-3926
▁puts	-3927
▁uses	-3928
ashion	-3929
▁gross	-3930
▁names	-3931
▁penal	-3932
▁bigger	-3933
▁ground	-3934
▁incent	-3935
▁interp	-3936
▁judges	-3937
▁mainly	-3938
▁observ	-3939
▁panama	-3940
▁played	-3941
▁taxpay	-3942
▁barrels	-3943
▁conclud	-3944
▁florida	-3945
▁follows	-3946
▁highway	-3947
▁managed	-3948
▁monitor	-3949
▁pricing	-3950
▁protest	-3951
▁weekend	-3952
▁remained	-3953
▁amendment	-3954
▁attorneys	-3955
▁decisions	-3956
▁liquidity	-3957
▁employment	-3958
▁instruments	-3959
▁responsible	-3960
▁representatives	-3961
go	-3962
edy	-3963
iqu	-3964
olf	-3965
aret	-3966
dson	-3967
gary	-3968
iled	-3969
uits	-3970
▁dan	-3971
▁nom	-3972
▁sea	-3973
icorp	-3974
ilies	-3975
▁outl	-3976
▁pace	-3977
▁synd	-3978
▁whit	-3979
arents	-3980
illips	-3981
▁crude	-3982
▁enfor	-3983
▁surge	-3984
▁blacks	-3985
▁decide	-3986
▁middle	-3987
iconduct	-3988
▁burnham	-3989
▁operate	-3990
▁parents	-3991
▁station	-3992
▁stephen	-3993
▁stopped	-3994
▁families	-3995
▁phillips	-3996
▁challenge	-3997
▁fundament	-3998
▁producing	-3999
▁reflected	-4000
▁authorities	-4001
▁semiconduct	-4002
▁conventional	-4003
cul	-4004
ero	-4005
oph	-4006
osa	-4007
furt	-4008
reci	-4009
apped	-4010
koosa	-4011
▁dism	-4012
▁felt	-4013
▁foun	-4014
▁jeff	-4015
▁none	-4016
▁exact	-4017
▁front	-4018
▁liber	-4019
▁lobby	-4020
▁loyal	-4021
▁older	-4022
▁ounce	-4023
▁sound	-4024
▁tight	-4025
▁urban	-4026
▁abroad	-4027
▁calcul	-4028
▁models	-4029
▁recall	-4030
▁rumors	-4031
▁soared	-4032
▁switch	-4033
▁appeals	-4034
▁nekoosa	-4035
▁obvious	-4036
▁respect	-4037
▁slipped	-4038
▁talking	-4039
▁utility	-4040
▁demonstr	-4041
▁operates	-4042
▁advantage	-4043
▁frankfurt	-4044
▁influence	-4045
▁technolog	-4046
▁temporary	-4047
▁candidates	-4048
▁leadership	-4049
alf	-4050
van	-4051
▁ec	-4052
▁adm	-4053
▁bat	-4054
▁emb	-4055
▁hou	-4056
▁rom	-4057
orter	-4058
state	-4059
▁arch	-4060
ospace	-4061
▁grant	-4062
▁mccaw	-4063
▁voted	-4064
▁wells	-4065
▁africa	-4066
▁courts	-4067
▁regard	-4068
▁convers	-4069
▁cutting	-4070
▁houston	-4071
▁keeping	-4072
▁oakland	-4073
▁scandal	-4074
▁contrast	-4075
▁intended	-4076
▁meetings	-4077
▁patients	-4078
▁stronger	-4079
▁aerospace	-4080
▁condition	-4081
▁immediate	-4082
▁suggested	-4083
▁suspended	-4084
▁extraordin	-4085
▁interstate	-4086
▁prudential	-4087
▁purchasing	-4088
▁statistics	-4089
rep	-4090
rys	-4091
▁ep	-4092
▁od	-4093
▁og	-4094
▁ow	-4095
bles	-4096
eing	-4097
wise	-4098
▁exc	-4099
▁mca	-4100
▁pal	-4101
andon	-4102
annie	-4103
▁carl	-4104
▁goal	-4105
▁hall	-4106
▁happ	-4107
▁kenn	-4108
▁ring	-4109
▁save	-4110
▁tenn	-4111
▁wang	-4112
▁wife	-4113
remely	-4114
romise	-4115
rysler	-4116
▁displ	-4117
▁italy	-4118
▁pages	-4119
▁twice	-4120
▁voice	-4121
iminary	-4122
▁assess	-4123
▁boeing	-4124
▁church	-4125
▁citing	-4126
▁fairly	-4127
▁fannie	-4128
▁joseph	-4129
▁morris	-4130
▁movies	-4131
▁wonder	-4132
▁abandon	-4133
▁studies	-4134
▁chrysler	-4135
▁shopping	-4136
▁confirmed	-4137
▁direction	-4138
▁extremely	-4139
▁guarantee	-4140
▁assistance	-4141
▁compromise	-4142
▁determined	-4143
▁alternative	-4144
▁consultants	-4145
▁discussions	-4146
▁preliminary	-4147
nel	-4148
ague	-4149
berg	-4150
fell	-4151
▁fal	-4152
▁cast	-4153
▁dang	-4154
▁exam	-4155
▁file	-4156
▁lift	-4157
▁safe	-4158
▁spir	-4159
▁task	-4160
▁wake	-4161
▁wild	-4162
itrust	-4163
lywood	-4164
ushing	-4165
▁argue	-4166
▁buyer	-4167
▁chanc	-4168
▁citiz	-4169
▁meant	-4170
▁prove	-4171
▁river	-4172
▁solid	-4173
ecutive	-4174
▁exclus	-4175
▁flight	-4176
▁possib	-4177
▁satisf	-4178
▁silver	-4179
▁lambert	-4180
▁appeared	-4181
▁citicorp	-4182
▁coverage	-4183
▁declared	-4184
▁disclose	-4185
▁prospect	-4186
▁senators	-4187
▁training	-4188
▁antitrust	-4189
▁hollywood	-4190
▁comparable	-4191
▁guarantees	-4192
▁structural	-4193
▁commitments	-4194
▁negotiating	-4195
iet	-4196
iny	-4197
ancy	-4198
iety	-4199
▁amb	-4200
▁cub	-4201
▁hud	-4202
adium	-4203
▁asse	-4204
▁chev	-4205
▁deep	-4206
▁grad	-4207
▁navy	-4208
▁upon	-4209
▁check	-4210
▁creat	-4211
▁quiet	-4212
▁shown	-4213
▁usair	-4214
ication	-4215
▁asking	-4216
▁basket	-4217
▁denied	-4218
▁joined	-4219
▁living	-4220
▁mining	-4221
▁steven	-4222
▁swings	-4223
▁factory	-4224
▁fashion	-4225
▁jointly	-4226
▁promise	-4227
▁rebound	-4228
▁records	-4229
▁written	-4230
▁advisers	-4231
▁announce	-4232
▁mountain	-4233
▁movement	-4234
▁succeeds	-4235
▁suggests	-4236
▁volatile	-4237
▁warrants	-4238
▁professor	-4239
gm	-4240
ij	-4241
cts	-4242
lia	-4243
tax	-4244
▁cd	-4245
fort	-4246
ikes	-4247
isis	-4248
iven	-4249
rect	-4250
▁cyc	-4251
▁mgm	-4252
▁roc	-4253
▁toy	-4254
▁tro	-4255
▁ver	-4256
eline	-4257
estro	-4258
ijing	-4259
urday	-4260
▁card	-4261
▁club	-4262
▁door	-4263
▁hill	-4264
▁tool	-4265
▁word	-4266
anging	-4267
itting	-4268
▁deman	-4269
▁freed	-4270
▁royal	-4271
▁style	-4272
liament	-4273
▁crisis	-4274
▁drives	-4275
▁forest	-4276
▁object	-4277
▁patent	-4278
▁search	-4279
▁served	-4280
▁weekly	-4281
▁beijing	-4282
▁compens	-4283
▁counsel	-4284
▁damages	-4285
▁refused	-4286
▁vehicle	-4287
▁alliance	-4288
▁returned	-4289
▁saturday	-4290
▁telerate	-4291
▁providing	-4292
▁recommend	-4293
▁agreements	-4294
▁discovered	-4295
▁parliament	-4296
▁resolution	-4297
▁regulations	-4298
▁responsibility	-4299
ah	-4300
rs	-4301
bon	-4302
let	-4303
ota	-4304
▁ho	-4305
▁ny	-4306
azil	-4307
food	-4308
outh	-4309
pack	-4310
rees	-4311
▁asp	-4312
▁fem	-4313
▁hew	-4314
▁nik	-4315
▁wil	-4316
apore	-4317
arely	-4318
atchi	-4319
ensus	-4320
iture	-4321
itzer	-4322
ivity	-4323
ounds	-4324
rence	-4325
ument	-4326
▁boom	-4327
▁chip	-4328
▁copy	-4329
▁doct	-4330
▁fred	-4331
▁smok	-4332
▁categ	-4333
▁chase	-4334
▁games	-4335
▁serve	-4336
▁votes	-4337
packard	-4338
▁brazil	-4339
▁discip	-4340
▁edward	-4341
▁repair	-4342
▁square	-4343
▁thinks	-4344
▁address	-4345
▁ceiling	-4346
▁friends	-4347
▁helping	-4348
▁hewlett	-4349
▁insured	-4350
▁matters	-4351
▁saatchi	-4352
▁switzer	-4353
▁worried	-4354
▁carolina	-4355
▁critical	-4356
▁politics	-4357
▁reaction	-4358
▁supposed	-4359
▁initially	-4360
▁personnel	-4361
▁singapore	-4362
▁machinists	-4363
▁underlying	-4364
▁exploration	-4365
▁switzerland	-4366
▁representing	-4367
ffee	-4368
oses	-4369
uage	-4370
yield	-4371
▁acad	-4372
▁aids	-4373
▁army	-4374
▁join	-4375
▁lock	-4376
▁mine	-4377
▁mult	-4378
▁pact	-4379
▁remo	-4380
▁russ	-4381
▁sand	-4382
▁stor	-4383
▁type	-4384
employ	-4385
▁lives	-4386
▁looks	-4387
▁rival	-4388
▁title	-4389
▁views	-4390
related	-4391
▁argued	-4392
▁coffee	-4393
▁easily	-4394
▁fallen	-4395
▁histor	-4396
▁intent	-4397
▁nobody	-4398
▁termin	-4399
▁atlanta	-4400
▁covered	-4401
▁default	-4402
▁entered	-4403
▁equival	-4404
▁illegal	-4405
▁organiz	-4406
▁picture	-4407
▁setting	-4408
▁audience	-4409
▁bureaucr	-4410
▁happened	-4411
▁language	-4412
▁operator	-4413
▁register	-4414
▁shipping	-4415
▁membership	-4416
▁scientific	-4417
▁ultimately	-4418
▁politicians	-4419
▁temporarily	-4420
▁extraordinary	-4421
die	-4422
une	-4423
aces	-4424
elan	-4425
erry	-4426
mine	-4427
pson	-4428
quir	-4429
▁abc	-4430
▁eye	-4431
▁fit	-4432
agues	-4433
iants	-4434
▁brew	-4435
▁carp	-4436
▁caut	-4437
▁cham	-4438
▁dise	-4439
▁lett	-4440
▁phot	-4441
▁ross	-4442
▁roth	-4443
▁tent	-4444
▁tick	-4445
lement	-4446
▁chann	-4447
▁grain	-4448
▁newly	-4449
▁piece	-4450
▁worse	-4451
▁agents	-4452
▁choice	-4453
▁costly	-4454
▁fields	-4455
▁giants	-4456
▁indict	-4457
▁inquir	-4458
▁nature	-4459
▁phelan	-4460
▁circuit	-4461
▁concept	-4462
▁letters	-4463
▁lowered	-4464
▁cautious	-4465
▁indicate	-4466
▁lawsuits	-4467
▁merchand	-4468
▁millions	-4469
▁normally	-4470
▁suffered	-4471
▁troubles	-4472
▁described	-4473
▁expressed	-4474
▁investing	-4475
▁prospects	-4476
▁publisher	-4477
▁reporters	-4478
▁reporting	-4479
▁taxpayers	-4480
▁colleagues	-4481
▁generation	-4482
▁proceedings	-4483
▁resignation	-4484
▁specialists	-4485
▁manufacturer	-4486
▁controversial	-4487
jr	-4488
ein	-4489
kin	-4490
nam	-4491
▁fi	-4492
look	-4493
rest	-4494
rowd	-4495
▁eth	-4496
▁rjr	-4497
aking	-4498
amble	-4499
icate	-4500
tered	-4501
▁died	-4502
▁fort	-4503
▁heat	-4504
▁rail	-4505
▁sets	-4506
▁spot	-4507
▁ties	-4508
▁vide	-4509
▁wars	-4510
▁weap	-4511
liance	-4512
▁costa	-4513
▁crowd	-4514
▁types	-4515
▁urged	-4516
▁archit	-4517
▁expert	-4518
▁extent	-4519
▁factor	-4520
▁inside	-4521
▁pushed	-4522
▁reject	-4523
▁reluct	-4524
▁simple	-4525
▁adopted	-4526
▁founder	-4527
▁intends	-4528
▁outlook	-4529
▁rapidly	-4530
▁student	-4531
reciation	-4532
▁presence	-4533
▁techniqu	-4534
▁acquiring	-4535
▁concluded	-4536
▁editorial	-4537
▁aggressive	-4538
▁strategies	-4539
▁understand	-4540
▁consecutive	-4541
▁technologies	-4542
▁semiconductor	-4543
▁administrative	-4544
ne	-4545
ua	-4546
din	-4547
hia	-4548
oms	-4549
uel	-4550
acom	-4551
hold	-4552
ilvy	-4553
▁lay	-4554
▁mob	-4555
adelp	-4556
ampsh	-4557
earns	-4558
point	-4559
▁cold	-4560
▁cosm	-4561
▁enjo	-4562
▁flag	-4563
▁tied	-4564
aphics	-4565
▁agent	-4566
▁basic	-4567
▁drink	-4568
▁genes	-4569
▁reput	-4570
▁slide	-4571
▁squee	-4572
▁stage	-4573
▁visit	-4574
olution	-4575
▁ensure	-4576
▁formed	-4577
▁garden	-4578
▁hampsh	-4579
▁metric	-4580
▁miller	-4581
▁ogilvy	-4582
▁pursue	-4583
▁unable	-4584
▁virgin	-4585
▁voting	-4586
▁warned	-4587
adelphia	-4588
▁connect	-4589
▁install	-4590
▁stearns	-4591
▁atlantic	-4592
▁graphics	-4593
▁hearings	-4594
▁pictures	-4595
▁repeated	-4596
▁committed	-4597
▁hampshire	-4598
▁household	-4599
▁offerings	-4600
▁specialty	-4601
▁guaranteed	-4602
▁integrated	-4603
▁obligation	-4604
▁resistance	-4605
▁restaurant	-4606
▁commissions	-4607
▁corporation	-4608
▁enterprises	-4609
▁possibility	-4610
▁philadelphia	-4611
ov	-4612
iro	-4613
mas	-4614
apol	-4615
erts	-4616
irds	-4617
umst	-4618
uses	-4619
vard	-4620
▁cig	-4621
▁ded	-4622
▁las	-4623
▁lib	-4624
berts	-4625
casts	-4626
ellor	-4627
forms	-4628
fully	-4629
known	-4630
▁anti	-4631
▁asia	-4632
▁euro	-4633
▁phys	-4634
▁rico	-4635
▁scre	-4636
▁sust	-4637
apolis	-4638
arding	-4639
ormous	-4640
▁accom	-4641
▁knows	-4642
▁music	-4643
▁ratio	-4644
▁throw	-4645
▁waste	-4646
▁worst	-4647
essions	-4648
▁assume	-4649
▁experi	-4650
▁greens	-4651
▁league	-4652
▁limits	-4653
▁mother	-4654
▁prison	-4655
▁studio	-4656
▁window	-4657
▁cigaret	-4658
▁comfort	-4659
▁mention	-4660
▁realize	-4661
▁reforms	-4662
▁roberts	-4663
umstances	-4664
▁comments	-4665
▁contends	-4666
▁enormous	-4667
▁exposure	-4668
▁extended	-4669
▁invested	-4670
▁quarters	-4671
▁reducing	-4672
▁christmas	-4673
▁confident	-4674
▁criticism	-4675
▁excluding	-4676
▁forecasts	-4677
▁privately	-4678
▁retailers	-4679
▁shipments	-4680
▁supported	-4681
▁chancellor	-4682
▁processing	-4683
▁differences	-4684
▁participants	-4685
▁circumstances	-4686
▁constitutional	-4687
gun	-4688
bank	-4689
iami	-4690
illy	-4691
item	-4692
▁anc	-4693
▁jew	-4694
▁luf	-4695
▁wis	-4696
apsed	-4697
ikely	-4698
ilipp	-4699
night	-4700
owned	-4701
vania	-4702
▁beer	-4703
▁cath	-4704
▁marc	-4705
▁nyse	-4706
apital	-4707
▁attit	-4708
▁banco	-4709
▁begun	-4710
▁conse	-4711
▁marsh	-4712
▁miami	-4713
▁mitch	-4714
▁pitts	-4715
▁quant	-4716
▁reins	-4717
▁users	-4718
▁brooks	-4719
▁career	-4720
▁easier	-4721
▁faster	-4722
▁scenar	-4723
▁status	-4724
▁stress	-4725
sylvania	-4726
▁breeden	-4727
▁caution	-4728
▁culture	-4729
▁dismiss	-4730
▁genetic	-4731
▁hungary	-4732
▁lenders	-4733
▁pattern	-4734
▁philipp	-4735
▁warning	-4736
ification	-4737
▁becoming	-4738
▁carriers	-4739
▁creating	-4740
▁football	-4741
▁mitchell	-4742
▁pipeline	-4743
▁unlikely	-4744
▁affiliate	-4745
▁character	-4746
▁collapsed	-4747
▁triggered	-4748
▁commitment	-4749
▁pittsburgh	-4750
▁anticipated	-4751
▁cooperation	-4752
▁governments	-4753
▁pennsylvania	-4754
kl	-4755
mo	-4756
ita	-4757
kel	-4758
abil	-4759
cies	-4760
ebec	-4761
glas	-4762
iffs	-4763
▁dai	-4764
▁hel	-4765
▁inf	-4766
aring	-4767
ature	-4768
idesp	-4769
umped	-4770
▁anim	-4771
▁bail	-4772
▁code	-4773
▁disp	-4774
▁dist	-4775
▁emer	-4776
▁eval	-4777
▁iran	-4778
▁seed	-4779
▁sens	-4780
derick	-4781
▁barri	-4782
▁beach	-4783
▁brady	-4784
▁cells	-4785
▁faced	-4786
▁foods	-4787
▁grown	-4788
▁heard	-4789
▁hills	-4790
▁peace	-4791
▁plain	-4792
▁rooms	-4793
▁ruled	-4794
▁scott	-4795
▁suits	-4796
▁surpl	-4797
▁tower	-4798
▁academ	-4799
▁banker	-4800
▁extend	-4801
▁facing	-4802
▁father	-4803
▁martin	-4804
▁messrs	-4805
▁revers	-4806
▁speech	-4807
▁widesp	-4808
▁awarded	-4809
▁calling	-4810
▁carried	-4811
▁douglas	-4812
▁recover	-4813
▁tumbled	-4814
▁branches	-4815
▁citizens	-4816
▁formerly	-4817
▁friendly	-4818
▁lawrence	-4819
▁possibly	-4820
▁requires	-4821
▁unemploy	-4822
▁democracy	-4823
▁efficient	-4824
▁neighborh	-4825
▁otherwise	-4826
▁published	-4827
▁retailing	-4828
▁secondary	-4829
▁currencies	-4830
▁frequently	-4831
▁newspapers	-4832
▁widespread	-4833
▁commodities	-4834
▁inventories	-4835
▁unemployment	-4836
ta	-4837
ui	-4838
aiw	-4839
rew	-4840
tch	-4841
uff	-4842
argo	-4843
comm	-4844
sych	-4845
tech	-4846
trol	-4847
▁bol	-4848
▁die	-4849
▁gal	-4850
▁gop	-4851
▁ran	-4852
▁son	-4853
abody	-4854
acing	-4855
aiwan	-4856
ittee	-4857
oline	-4858
▁feed	-4859
▁hunt	-4860
▁issu	-4861
▁rout	-4862
▁thin	-4863
ecured	-4864
unding	-4865
▁apply	-4866
▁badly	-4867
▁micro	-4868
▁psych	-4869
▁seeks	-4870
▁slash	-4871
▁turns	-4872
▁veter	-4873
imistic	-4874
roducts	-4875
▁answer	-4876
▁caught	-4877
▁donald	-4878
▁filled	-4879
▁handle	-4880
▁merely	-4881
▁quebec	-4882
▁retain	-4883
▁taiwan	-4884
▁walter	-4885
▁approve	-4886
▁automob	-4887
▁brewing	-4888
▁carries	-4889
▁expense	-4890
▁massive	-4891
▁peabody	-4892
▁playing	-4893
▁stadium	-4894
▁stories	-4895
▁stretch	-4896
▁subcomm	-4897
▁turning	-4898
▁cellular	-4899
▁expanded	-4900
▁gasoline	-4901
▁moderate	-4902
▁networks	-4903
▁progress	-4904
▁employers	-4905
▁encourage	-4906
▁interpret	-4907
▁observers	-4908
▁unsecured	-4909
▁attractive	-4910
▁consistent	-4911
▁equivalent	-4912
▁merchandise	-4913
▁alternatives	-4914
▁subcommittee	-4915
▁contributions	-4916
▁disappointing	-4917
cs	-4918
bac	-4919
ung	-4920
mbly	-4921
rene	-4922
unds	-4923
wers	-4924
▁bes	-4925
▁dun	-4926
▁gap	-4927
▁guy	-4928
▁hor	-4929
▁ski	-4930
bacco	-4931
erald	-4932
▁disk	-4933
▁iron	-4934
▁nerv	-4935
▁race	-4936
▁rall	-4937
▁sees	-4938
▁site	-4939
▁soph	-4940
▁alleg	-4941
▁blood	-4942
▁guard	-4943
▁hired	-4944
▁metal	-4945
▁novel	-4946
▁pilot	-4947
▁spain	-4948
ossible	-4949
reprene	-4950
trading	-4951
▁closer	-4952
▁daniel	-4953
▁fellow	-4954
▁memory	-4955
▁orange	-4956
▁pulled	-4957
▁resume	-4958
▁steady	-4959
▁sunday	-4960
▁unfair	-4961
▁applied	-4962
▁causing	-4963
▁illustr	-4964
▁maxwell	-4965
▁nervous	-4966
▁pushing	-4967
▁storage	-4968
▁tobacco	-4969
▁yeargin	-4970
isticated	-4971
▁assembly	-4972
▁bringing	-4973
▁changing	-4974
▁handling	-4975
▁identify	-4976
▁prompted	-4977
▁recorded	-4978
▁appointed	-4979
▁machinery	-4980
▁nicaragua	-4981
▁surprised	-4982
▁entreprene	-4983
▁identified	-4984
▁impossible	-4985
▁population	-4986
▁sufficient	-4987
▁allegations	-4988
▁consolidated	-4989
▁sophisticated	-4990
ada	-4991
bus	-4992
has	-4993
mit	-4994
ray	-4995
ura	-4996
yed	-4997
abor	-4998
acle	-4999
etts	-5000
ixon	-5001
kept	-5002
loss	-5003
more	-5004
omes	-5005
outs	-5006
ught	-5007
▁gar	-5008
▁han	-5009
▁tap	-5010
▁ten	-5011
▁wel	-5012
achus	-5013
ansas	-5014
ecker	-5015
etnam	-5016
place	-5017
stock	-5018
tings	-5019
▁barg	-5020
▁bart	-5021
▁dram	-5022
▁flex	-5023
▁insp	-5024
▁opec	-5025
▁pulp	-5026
▁rand	-5027
▁trim	-5028
▁wait	-5029
▁zero	-5030
manent	-5031
▁aside	-5032
▁heads	-5033
▁medic	-5034
▁nixon	-5035
▁ordin	-5036
▁ought	-5037
▁skept	-5038
▁spons	-5039
▁subse	-5040
▁table	-5041
▁video	-5042
aborate	-5043
tenance	-5044
urchase	-5045
▁afford	-5046
▁bottom	-5047
▁cancel	-5048
▁delays	-5049
▁emphas	-5050
▁harder	-5051
▁passen	-5052
▁player	-5053
▁severe	-5054
▁theory	-5055
▁viacom	-5056
▁worker	-5057
▁channel	-5058
▁dealing	-5059
▁flights	-5060
▁hanover	-5061
▁insurer	-5062
▁lawsuit	-5063
▁maximum	-5064
▁plastic	-5065
▁reading	-5066
▁recalls	-5067
▁vietnam	-5068
achusetts	-5069
echnology	-5070
▁allowing	-5071
▁downturn	-5072
▁honecker	-5073
▁merchant	-5074
▁numerous	-5075
▁priority	-5076
▁resulted	-5077
▁revenues	-5078
▁thompson	-5079
▁elaborate	-5080
▁eliminate	-5081
▁greenspan	-5082
▁introduce	-5083
▁northeast	-5084
▁permanent	-5085
▁complained	-5086
▁portfolios	-5087
▁specialist	-5088
▁threatened	-5089
▁violations	-5090
▁educational	-5091
▁enforcement	-5092
▁maintenance	-5093
▁applications	-5094
▁subsidiaries	-5095
▁massachusetts	-5096
▁profitability	-5097
kr	-5098
eat	-5099
exp	-5100
ibe	-5101
ipp	-5102
kei	-5103
oen	-5104
ugg	-5105
▁kr	-5106
▁va	-5107
bell	-5108
eted	-5109
heim	-5110
ipts	-5111
▁bob	-5112
▁cab	-5113
▁egg	-5114
▁fla	-5115
▁jac	-5116
▁kkr	-5117
▁riv	-5118
▁swe	-5119
ables	-5120
inois	-5121
lands	-5122
▁arab	-5123
▁bloc	-5124
▁brad	-5125
▁impl	-5126
▁rede	-5127
▁unve	-5128
▁wish	-5129
action	-5130
astrop	-5131
dollar	-5132
thirds	-5133
uggish	-5134
▁charl	-5135
▁cheap	-5136
▁consp	-5137
▁drill	-5138
▁fleet	-5139
▁fresh	-5140
▁india	-5141
▁pitch	-5142
▁roman	-5143
▁shops	-5144
ultural	-5145
▁chains	-5146
▁dealer	-5147
▁formal	-5148
▁nikkei	-5149
▁rivals	-5150
▁superv	-5151
▁turner	-5152
expected	-5153
ological	-5154
▁chamber	-5155
▁claimed	-5156
▁confirm	-5157
▁consent	-5158
▁freddie	-5159
▁learned	-5160
▁message	-5161
▁purpose	-5162
▁retired	-5163
▁shortly	-5164
▁targets	-5165
▁typical	-5166
▁billions	-5167
▁campbell	-5168
▁carrying	-5169
▁fighting	-5170
▁illinois	-5171
▁promised	-5172
▁sluggish	-5173
▁surprise	-5174
▁totaling	-5175
▁catastrop	-5176
▁determine	-5177
▁everybody	-5178
▁expanding	-5179
▁indicates	-5180
▁operators	-5181
▁promotion	-5182
▁regarding	-5183
▁connection	-5184
▁containers	-5185
▁developers	-5186
▁foundation	-5187
▁nationwide	-5188
▁statements	-5189
▁consumption	-5190
▁essentially	-5191
▁industrials	-5192
▁represented	-5193
▁compensation	-5194
▁organizations	-5195
aq	-5196
mp	-5197
elk	-5198
gas	-5199
pro	-5200
ram	-5201
reh	-5202
unt	-5203
usb	-5204
▁vs	-5205
ardt	-5206
itan	-5207
itsu	-5208
larg	-5209
tega	-5210
ynam	-5211
▁deg	-5212
▁fly	-5213
▁ltv	-5214
▁luc	-5215
▁sex	-5216
▁ton	-5217
bache	-5218
elken	-5219
enter	-5220
esale	-5221
hardt	-5222
third	-5223
▁alex	-5224
▁curb	-5225
▁halt	-5226
▁husb	-5227
▁meth	-5228
▁peak	-5229
▁seat	-5230
▁shot	-5231
▁swed	-5232
▁tape	-5233
▁trem	-5234
atever	-5235
minent	-5236
▁abort	-5237
▁aware	-5238
▁blame	-5239
▁catch	-5240
▁crack	-5241
▁dynam	-5242
▁glass	-5243
ionally	-5244
largest	-5245
▁arrest	-5246
▁begins	-5247
▁compaq	-5248
▁delmed	-5249
▁desire	-5250
▁ortega	-5251
▁papers	-5252
▁stands	-5253
▁trends	-5254
▁weight	-5255
▁winter	-5256
▁bailout	-5257
▁compreh	-5258
▁demands	-5259
▁disrupt	-5260
▁exactly	-5261
▁explain	-5262
▁freedom	-5263
▁fujitsu	-5264
▁husband	-5265
▁payable	-5266
▁rothsch	-5267
▁theater	-5268
▁engelken	-5269
▁governor	-5270
▁officers	-5271
▁packages	-5272
▁planners	-5273
▁turnover	-5274
▁virginia	-5275
▁whatever	-5276
▁bellsouth	-5277
▁cosmetics	-5278
▁successor	-5279
▁wholesale	-5280
▁reputation	-5281
▁steinhardt	-5282
▁supporters	-5283
▁institution	-5284
▁legislative	-5285
▁reinsurance	-5286
▁constitution	-5287
▁comprehensive	-5288
▁opportunities	-5289
gn	-5290
lk	-5291
esa	-5292
ker	-5293
chip	-5294
eman	-5295
etna	-5296
ifth	-5297
inum	-5298
lium	-5299
moil	-5300
what	-5301
ysis	-5302
▁box	-5303
▁ica	-5304
▁lag	-5305
▁mci	-5306
▁pun	-5307
aught	-5308
issue	-5309
osing	-5310
ropol	-5311
wards	-5312
▁aide	-5313
▁arms	-5314
▁bulk	-5315
▁cool	-5316
▁dial	-5317
▁mesa	-5318
▁pool	-5319
▁psyl	-5320
▁rent	-5321
▁saab	-5322
▁surf	-5323
▁text	-5324
▁wear	-5325
▁wood	-5326
feller	-5327
icated	-5328
timore	-5329
▁advoc	-5330
▁aetna	-5331
▁corry	-5332
▁daiwa	-5333
▁enact	-5334
▁fifth	-5335
▁forms	-5336
▁goals	-5337
▁icahn	-5338
▁mills	-5339
▁persu	-5340
▁pregn	-5341
▁rocke	-5342
▁scale	-5343
▁shock	-5344
▁sweep	-5345
▁advice	-5346
▁attend	-5347
▁berlin	-5348
▁gather	-5349
▁harris	-5350
▁places	-5351
▁prohib	-5352
▁stable	-5353
▁weaker	-5354
▁benefic	-5355
▁besides	-5356
▁charter	-5357
▁english	-5358
▁holiday	-5359
▁ranging	-5360
▁turmoil	-5361
▁warrant	-5362
▁witness	-5363
ropolitan	-5364
▁achieved	-5365
▁covering	-5366
▁generate	-5367
▁psyllium	-5368
▁retailer	-5369
▁schedule	-5370
▁somewhat	-5371
▁standing	-5372
▁strongly	-5373
▁accounted	-5374
▁baltimore	-5375
▁consensus	-5376
▁engineers	-5377
▁exclusive	-5378
▁resulting	-5379
▁sensitive	-5380
▁procedures	-5381
▁agriculture	-5382
▁restaurants	-5383
▁rockefeller	-5384
▁considerable	-5385
▁metropolitan	-5386
hi	-5387
ny	-5388
ra	-5389
ogr	-5390
onz	-5391
uth	-5392
▁hy	-5393
▁ru	-5394
alez	-5395
▁hed	-5396
▁jim	-5397
▁ray	-5398
▁wat	-5399
emper	-5400
izing	-5401
right	-5402
stein	-5403
▁bern	-5404
▁dean	-5405
▁dell	-5406
▁eggs	-5407
▁gonz	-5408
▁hart	-5409
▁magn	-5410
▁mand	-5411
▁mist	-5412
▁nich	-5413
▁plum	-5414
▁send	-5415
▁slid	-5416
ograph	-5417
veland	-5418
▁asian	-5419
▁confl	-5420
▁davis	-5421
▁delta	-5422
▁donal	-5423
▁guide	-5424
▁latin	-5425
▁occas	-5426
▁schem	-5427
ression	-5428
▁albert	-5429
▁behalf	-5430
▁broken	-5431
▁casual	-5432
▁column	-5433
▁deaths	-5434
▁destro	-5435
▁edison	-5436
▁expire	-5437
▁hardly	-5438
▁looked	-5439
▁marine	-5440
▁regime	-5441
▁stabil	-5442
▁stream	-5443
▁airways	-5444
▁broader	-5445
▁correct	-5446
▁delayed	-5447
▁display	-5448
▁doubled	-5449
▁spirits	-5450
▁surplus	-5451
▁variety	-5452
▁victory	-5453
▁argument	-5454
▁deterior	-5455
▁gonzalez	-5456
▁learning	-5457
▁location	-5458
▁remember	-5459
▁subscrib	-5460
▁architect	-5461
▁cleveland	-5462
▁competing	-5463
▁conducted	-5464
▁convicted	-5465
▁defensive	-5466
▁donaldson	-5467
▁economics	-5468
▁pressures	-5469
▁incentives	-5470
▁initiative	-5471
▁registered	-5472
▁revolution	-5473
▁arrangement	-5474
▁combination	-5475
fe	-5476
era	-5477
see	-5478
▁az	-5479
augh	-5480
gate	-5481
ianz	-5482
ican	-5483
nell	-5484
ogel	-5485
tery	-5486
thur	-5487
▁anx	-5488
▁bow	-5489
▁boy	-5490
▁dil	-5491
▁dur	-5492
▁rey	-5493
▁ted	-5494
▁unw	-5495
▁van	-5496
rical	-5497
theby	-5498
uster	-5499
verty	-5500
▁acts	-5501
▁beth	-5502
▁body	-5503
▁duty	-5504
▁fish	-5505
▁pont	-5506
▁pull	-5507
▁tand	-5508
▁wave	-5509
▁wine	-5510
▁accel	-5511
▁adequ	-5512
▁allen	-5513
▁broke	-5514
▁eased	-5515
▁hoped	-5516
▁knock	-5517
▁lilly	-5518
▁round	-5519
▁shall	-5520
▁touch	-5521
▁trail	-5522
emption	-5523
▁arthur	-5524
▁device	-5525
▁island	-5526
▁linked	-5527
▁seeing	-5528
▁triple	-5529
▁allianz	-5530
▁answers	-5531
▁colgate	-5532
▁compete	-5533
▁consequ	-5534
▁edition	-5535
▁engaged	-5536
▁poverty	-5537
▁reinfor	-5538
▁renewed	-5539
▁sellers	-5540
▁sotheby	-5541
▁weapons	-5542
▁concentr	-5543
▁constant	-5544
▁occurred	-5545
▁precious	-5546
▁purposes	-5547
▁unfortun	-5548
▁abandoned	-5549
▁borrowing	-5550
▁departure	-5551
▁districts	-5552
▁favorable	-5553
▁principle	-5554
▁recapital	-5555
▁requiring	-5556
▁responded	-5557
▁collection	-5558
▁discussing	-5559
▁reasonable	-5560
▁distributed	-5561
▁effectively	-5562
▁experiments	-5563
bu	-5564
do	-5565
crs	-5566
dom	-5567
enz	-5568
iba	-5569
key	-5570
kzo	-5571
cial	-5572
cola	-5573
colm	-5574
cons	-5575
enry	-5576
enty	-5577
fect	-5578
hour	-5579
icut	-5580
izes	-5581
osen	-5582
rete	-5583
roit	-5584
room	-5585
▁bor	-5586
▁esc	-5587
▁jur	-5588
▁mis	-5589
▁ral	-5590
▁rid	-5591
▁tre	-5592
▁akzo	-5593
▁coca	-5594
▁coke	-5595
▁inch	-5596
▁page	-5597
▁prev	-5598
▁rank	-5599
▁rape	-5600
▁schw	-5601
▁span	-5602
▁stol	-5603
▁wcrs	-5604
asters	-5605
erated	-5606
▁behav	-5607
▁brain	-5608
▁champ	-5609
▁coors	-5610
▁disag	-5611
▁henry	-5612
▁ideas	-5613
▁lease	-5614
▁mobil	-5615
▁risen	-5616
▁shell	-5617
▁spark	-5618
▁strip	-5619
▁teams	-5620
theless	-5621
viation	-5622
▁causes	-5623
▁duties	-5624
▁lufkin	-5625
▁manage	-5626
▁noting	-5627
▁pilson	-5628
▁plenty	-5629
▁poison	-5630
▁prepar	-5631
▁suffer	-5632
▁terror	-5633
▁toyota	-5634
▁wealth	-5635
▁whites	-5636
▁writer	-5637
inghouse	-5638
▁achieve	-5639
▁becomes	-5640
▁collect	-5641
▁crucial	-5642
▁detroit	-5643
▁filings	-5644
▁handful	-5645
▁insider	-5646
▁loyalty	-5647
▁malcolm	-5648
▁mergers	-5649
▁newport	-5650
▁perfect	-5651
▁science	-5652
▁secured	-5653
▁senator	-5654
▁telling	-5655
▁testing	-5656
▁compares	-5657
▁concrete	-5658
▁creative	-5659
▁marshall	-5660
▁plastics	-5661
▁premiums	-5662
▁scenario	-5663
▁watching	-5664
▁delivered	-5665
▁developer	-5666
▁divisions	-5667
▁mainframe	-5668
▁packaging	-5669
▁pollution	-5670
▁reluctant	-5671
▁succeeded	-5672
▁sustained	-5673
▁syndicate	-5674
▁suspension	-5675
▁circulation	-5676
▁connecticut	-5677
▁credibility	-5678
▁recommended	-5679
▁tentatively	-5680
▁nevertheless	-5681
▁westinghouse	-5682
hl	-5683
▁x	-5684
aut	-5685
lor	-5686
pon	-5687
xim	-5688
ades	-5689
ichi	-5690
igan	-5691
iger	-5692
ilae	-5693
mons	-5694
olds	-5695
stre	-5696
▁amr	-5697
▁ath	-5698
▁dip	-5699
▁ele	-5700
▁enh	-5701
▁gov	-5702
▁mad	-5703
▁pow	-5704
▁row	-5705
▁web	-5706
erica	-5707
icial	-5708
imate	-5709
inson	-5710
oenix	-5711
opher	-5712
ously	-5713
▁biot	-5714
▁desk	-5715
▁drew	-5716
▁fans	-5717
▁hahn	-5718
▁hook	-5719
▁kent	-5720
▁onto	-5721
▁ride	-5722
cedent	-5723
wealth	-5724
▁adopt	-5725
▁climb	-5726
▁cycle	-5727
▁eager	-5728
▁helps	-5729
▁oblig	-5730
▁remic	-5731
▁sheet	-5732
▁stick	-5733
▁stood	-5734
▁subur	-5735
▁troop	-5736
▁killed	-5737
▁murder	-5738
▁nomura	-5739
▁oppose	-5740
▁powers	-5741
▁redeem	-5742
▁timing	-5743
▁waerts	-5744
ximately	-5745
▁cheaper	-5746
▁credits	-5747
▁decades	-5748
▁driving	-5749
▁feeling	-5750
▁germans	-5751
▁inquiry	-5752
▁intense	-5753
▁license	-5754
▁phoenix	-5755
▁simmons	-5756
▁thomson	-5757
▁webster	-5758
▁younger	-5759
▁assuming	-5760
▁charging	-5761
▁downward	-5762
▁dramatic	-5763
▁homeless	-5764
▁imported	-5765
▁judicial	-5766
▁mcdonald	-5767
▁michigan	-5768
▁teachers	-5769
▁abortions	-5770
▁candidate	-5771
▁subsidies	-5772
▁assumption	-5773
▁attempting	-5774
▁complaints	-5775
▁criticized	-5776
▁encouraged	-5777
▁indicating	-5778
▁instrument	-5779
▁permission	-5780
▁unexpected	-5781
▁waertsilae	-5782
▁christopher	-5783
▁experienced	-5784
▁fundamental	-5785
▁marketplace	-5786
▁projections	-5787
▁underwriter	-5788
▁commonwealth	-5789
▁difficulties	-5790
▁productivity	-5791
▁approximately	-5792
▁biotechnology	-5793
▁conservatives	-5794
ih	-5795
pc	-5796
acr	-5797
aum	-5798
eal	-5799
oul	-5800
ped	-5801
ybe	-5802
▁ko	-5803
ador	-5804
amer	-5805
arks	-5806
ecks	-5807
exch	-5808
fund	-5809
iani	-5810
iced	-5811
nard	-5812
user	-5813
week	-5814
▁cia	-5815
▁fat	-5816
▁fol	-5817
▁tar	-5818
erton	-5819
ipped	-5820
nival	-5821
uries	-5822
▁gill	-5823
▁giul	-5824
▁judg	-5825
▁kids	-5826
▁lies	-5827
▁milk	-5828
▁mips	-5829
▁nasa	-5830
▁owed	-5831
▁pill	-5832
▁pink	-5833
▁rush	-5834
▁sacr	-5835
▁seag	-5836
▁sons	-5837
▁swap	-5838
▁zeal	-5839
ateral	-5840
egraph	-5841
itable	-5842
ksamer	-5843
utions	-5844
▁audit	-5845
▁bikes	-5846
▁cards	-5847
▁deleg	-5848
▁dutch	-5849
▁falls	-5850
▁jacob	-5851
▁mcdon	-5852
▁slump	-5853
▁soybe	-5854
▁speak	-5855
▁steep	-5856
▁stone	-5857
▁vegas	-5858
▁acting	-5859
▁allies	-5860
▁blamed	-5861
▁capped	-5862
▁checks	-5863
▁flying	-5864
▁gamble	-5865
▁holder	-5866
▁korean	-5867
▁marcos	-5868
▁plaint	-5869
▁planes	-5870
▁starts	-5871
▁treaty	-5872
▁unions	-5873
▁viewed	-5874
exchange	-5875
▁backing	-5876
▁divided	-5877
▁freeway	-5878
▁gillett	-5879
▁imposed	-5880
▁kennedy	-5881
▁liberal	-5882
▁maynard	-5883
▁meaning	-5884
▁promote	-5885
▁remarks	-5886
▁setback	-5887
▁totally	-5888
▁zealand	-5889
abilities	-5890
▁carnival	-5891
▁dealings	-5892
▁detailed	-5893
▁giuliani	-5894
▁refinery	-5895
▁relative	-5896
▁replaced	-5897
▁sciences	-5898
▁selected	-5899
▁interbank	-5900
▁merksamer	-5901
▁opponents	-5902
▁organized	-5903
▁overnight	-5904
▁pinkerton	-5905
▁referring	-5906
▁requested	-5907
▁telegraph	-5908
▁automobile	-5909
▁calculated	-5910
▁collateral	-5911
▁indicators	-5912
▁originally	-5913
▁regulation	-5914
▁stateswest	-5915
▁succeeding	-5916
▁comfortable	-5917
▁legislators	-5918
▁acknowledged	-5919
▁aggressively	-5920
▁appreciation	-5921
▁developments	-5922
▁consideration	-5923
yr	-5924
cue	-5925
oon	-5926
tle	-5927
wis	-5928
best	-5929
free	-5930
held	-5931
ileo	-5932
ivan	-5933
uted	-5934
vine	-5935
▁cra	-5936
▁dor	-5937
▁eld	-5938
▁gyr	-5939
aight	-5940
ecess	-5941
inner	-5942
uters	-5943
▁drag	-5944
▁ends	-5945
▁gary	-5946
▁hond	-5947
▁jail	-5948
▁load	-5949
▁mont	-5950
▁plat	-5951
▁rack	-5952
▁rare	-5953
▁sued	-5954
▁vary	-5955
antile	-5956
arrass	-5957
bestos	-5958
▁boren	-5959
▁catal	-5960
▁datap	-5961
▁fired	-5962
▁leads	-5963
▁lewis	-5964
▁plumm	-5965
▁rural	-5966
▁sweet	-5967
▁barely	-5968
▁barney	-5969
▁burden	-5970
▁expend	-5971
▁famous	-5972
▁farmer	-5973
▁grants	-5974
▁knight	-5975
▁mature	-5976
▁polish	-5977
▁proved	-5978
▁raises	-5979
▁remove	-5980
▁rescue	-5981
▁resort	-5982
▁stated	-5983
▁african	-5984
▁anybody	-5985
▁balloon	-5986
▁cleared	-5987
▁contras	-5988
▁disease	-5989
▁founded	-5990
▁freight	-5991
▁galileo	-5992
▁handled	-5993
▁joining	-5994
▁penalty	-5995
▁percept	-5996
▁readers	-5997
▁restore	-5998
▁winning	-5999
▁analysis	-6000
▁asbestos	-6001
▁attitude	-6002
▁bartlett	-6003
▁category	-6004
▁deadline	-6005
▁emerging	-6006
▁entirely	-6007
▁features	-6008
▁findings	-6009
▁maryland	-6010
▁medicine	-6011
▁memories	-6012
▁promises	-6013
▁receipts	-6014
▁showtime	-6015
▁straight	-6016
▁thinking	-6017
▁visitors	-6018
management	-6019
▁activists	-6020
▁allegedly	-6021
▁embarrass	-6022
▁gyrations	-6023
▁penalties	-6024
▁permitted	-6025
▁presented	-6026
▁technique	-6027
▁indication	-6028
▁indictment	-6029
▁maintained	-6030
▁mercantile	-6031
▁appropriate	-6032
▁businessmen	-6033
▁controlling	-6034
▁controversy	-6035
▁departments	-6036
▁programming	-6037
▁speculators	-6038
▁disappointed	-6039
▁presidential	-6040
▁publications	-6041
▁participation	-6042
▁representative	-6043
bi	-6044
np	-6045
aco	-6046
ati	-6047
law	-6048
ole	-6049
owa	-6050
pet	-6051
▁vo	-6052
aken	-6053
aska	-6054
assy	-6055
borg	-6056
loan	-6057
nost	-6058
risk	-6059
umul	-6060
▁bir	-6061
▁cel	-6062
▁cot	-6063
▁eat	-6064
▁fbi	-6065
▁fda	-6066
▁fox	-6067
▁gnp	-6068
▁jen	-6069
▁ore	-6070
ander	-6071
andhi	-6072
idman	-6073
iment	-6074
overs	-6075
relle	-6076
rette	-6077
scale	-6078
venue	-6079
▁busy	-6080
▁cinc	-6081
▁diam	-6082
▁harm	-6083
▁iowa	-6084
▁knew	-6085
▁love	-6086
▁odds	-6087
▁plea	-6088
▁proc	-6089
▁qual	-6090
▁rica	-6091
▁tone	-6092
amount	-6093
ighter	-6094
igible	-6095
ington	-6096
innati	-6097
perial	-6098
uccess	-6099
▁acres	-6100
▁cohen	-6101
▁colom	-6102
▁dream	-6103
▁false	-6104
▁jewel	-6105
▁lists	-6106
▁merge	-6107
▁minne	-6108
▁occur	-6109
▁polls	-6110
▁repay	-6111
▁roger	-6112
▁shape	-6113
▁tells	-6114
conduct	-6115
itation	-6116
▁avenue	-6117
▁cathay	-6118
▁choose	-6119
▁conner	-6120
▁copies	-6121
▁cotton	-6122
▁depend	-6123
▁explos	-6124
▁gandhi	-6125
▁hoping	-6126
▁howard	-6127
▁leaves	-6128
▁noneth	-6129
▁permit	-6130
▁pounds	-6131
▁revive	-6132
▁screen	-6133
▁slower	-6134
▁stakes	-6135
▁texaco	-6136
▁ticket	-6137
▁transl	-6138
▁trelle	-6139
▁warren	-6140
chemical	-6141
▁classes	-6142
▁contemp	-6143
▁contend	-6144
▁courter	-6145
▁happens	-6146
▁midwest	-6147
▁outcome	-6148
▁outlets	-6149
▁rallied	-6150
▁seidman	-6151
▁streets	-6152
▁writing	-6153
▁behavior	-6154
▁breaking	-6155
▁drilling	-6156
▁emphasis	-6157
▁imperial	-6158
▁jenrette	-6159
▁leverage	-6160
▁realized	-6161
▁resolved	-6162
▁attracted	-6163
▁charities	-6164
▁depending	-6165
▁discussed	-6166
▁paramount	-6167
▁recovered	-6168
▁sentiment	-6169
▁takeovers	-6170
▁unsuccess	-6171
▁cincinnati	-6172
▁committees	-6173
▁definitive	-6174
▁disclosure	-6175
▁foreigners	-6176
▁optimistic	-6177
▁reductions	-6178
▁seasonally	-6179
▁trelleborg	-6180
▁financially	-6181
▁minneapolis	-6182
▁nonetheless	-6183
▁participate	-6184
▁potentially	-6185
▁petrochemical	-6186
pe	-6187
tv	-6188
ene	-6189
hem	-6190
ogg	-6191
rey	-6192
top	-6193
ula	-6194
▁ps	-6195
arel	-6196
card	-6197
coup	-6198
dale	-6199
haul	-6200
hmer	-6201
isys	-6202
itol	-6203
ooth	-6204
ores	-6205
uate	-6206
▁dub	-6207
▁era	-6208
▁iii	-6209
▁jon	-6210
▁lar	-6211
▁lau	-6212
▁lor	-6213
▁nam	-6214
▁raw	-6215
ached	-6216
aysia	-6217
ector	-6218
essee	-6219
field	-6220
inter	-6221
lehem	-6222
puter	-6223
using	-6224
▁anth	-6225
▁dedu	-6226
▁edge	-6227
▁fiat	-6228
▁kell	-6229
▁lire	-6230
▁oust	-6231
▁pays	-6232
▁reve	-6233
acters	-6234
coupon	-6235
icious	-6236
▁daugh	-6237
▁debts	-6238
▁eagle	-6239
▁learn	-6240
▁minim	-6241
▁persp	-6242
▁plays	-6243
▁recru	-6244
▁ships	-6245
▁theme	-6246
▁tools	-6247
ambling	-6248
▁argues	-6249
▁backlo	-6250
▁boards	-6251
▁cattle	-6252
▁frustr	-6253
▁gotten	-6254
▁multip	-6255
▁ronald	-6256
▁scores	-6257
▁smooth	-6258
▁unisys	-6259
▁urging	-6260
computer	-6261
▁airport	-6262
▁apparel	-6263
▁aspects	-6264
▁assumed	-6265
▁bidders	-6266
▁bolster	-6267
▁capitol	-6268
▁contest	-6269
▁corrupt	-6270
▁durable	-6271
▁failing	-6272
▁greatly	-6273
▁hundred	-6274
▁jeffrey	-6275
▁kellogg	-6276
▁missing	-6277
▁pleaded	-6278
▁veteran	-6279
▁watched	-6280
▁weather	-6281
omingdale	-6282
▁academic	-6283
▁admitted	-6284
▁attached	-6285
▁canceled	-6286
▁casualty	-6287
▁compound	-6288
▁downtown	-6289
▁exceeded	-6290
▁favorite	-6291
▁greatest	-6292
▁malaysia	-6293
▁obtained	-6294
▁overhaul	-6295
▁printing	-6296
▁quebecor	-6297
▁somebody	-6298
▁bethlehem	-6299
▁economies	-6300
▁factories	-6301
▁financier	-6302
▁hospitals	-6303
▁obviously	-6304
▁sanctions	-6305
▁stability	-6306
▁submitted	-6307
▁tennessee	-6308
▁travelers	-6309
▁authorized	-6310
▁characters	-6311
▁comparison	-6312
▁completely	-6313
▁contractor	-6314
▁difficulty	-6315
▁discipline	-6316
▁eliminated	-6317
▁mainframes	-6318
▁negotiated	-6319
▁supporting	-6320
▁concentrate	-6321
▁interesting	-6322
▁perspective	-6323
▁philippines	-6324
▁recognition	-6325
▁residential	-6326
▁anticipation	-6327
▁bloomingdale	-6328
▁traditionally	-6329
ma	-6330
aby	-6331
ara	-6332
hus	-6333
win	-6334
aman	-6335
husi	-6336
lymp	-6337
rown	-6338
ruck	-6339
vant	-6340
zman	-6341
▁dal	-6342
▁mir	-6343
▁odd	-6344
▁roy	-6345
▁shr	-6346
▁tay	-6347
▁wpp	-6348
banon	-6349
empts	-6350
ennis	-6351
ppers	-6352
water	-6353
▁amex	-6354
▁asks	-6355
▁baby	-6356
▁boss	-6357
▁bron	-6358
▁deny	-6359
▁eyes	-6360
▁gray	-6361
▁hire	-6362
▁lane	-6363
▁tire	-6364
▁wolf	-6365
ellite	-6366
rights	-6367
▁absor	-6368
▁aides	-6369
▁alloc	-6370
▁cambr	-6371
▁happy	-6372
▁olymp	-6373
▁posts	-6374
▁reset	-6375
▁tiger	-6376
▁train	-6377
▁wages	-6378
▁walls	-6379
▁weigh	-6380
amanian	-6381
atories	-6382
▁allows	-6383
▁bitter	-6384
▁casino	-6385
▁cooper	-6386
▁covers	-6387
▁degree	-6388
▁dennis	-6389
▁funded	-6390
▁master	-6391
▁milton	-6392
▁pieces	-6393
▁rebels	-6394
▁slowed	-6395
▁struck	-6396
▁taylor	-6397
▁advised	-6398
▁climate	-6399
▁discour	-6400
▁doctors	-6401
▁enthusi	-6402
▁forward	-6403
▁harvard	-6404
▁italian	-6405
▁lebanon	-6406
▁located	-6407
▁partial	-6408
▁resolve	-6409
▁ringers	-6410
▁squeeze	-6411
▁taxable	-6412
▁accident	-6413
▁attempts	-6414
▁borrowed	-6415
▁focusing	-6416
▁franklin	-6417
▁hastings	-6418
▁measured	-6419
▁produces	-6420
▁railroad	-6421
▁segments	-6422
▁solution	-6423
▁studying	-6424
▁suddenly	-6425
▁sweeping	-6426
▁associate	-6427
▁complaint	-6428
▁disasters	-6429
▁donations	-6430
▁extensive	-6431
▁projected	-6432
▁satellite	-6433
▁seriously	-6434
▁socialist	-6435
▁specified	-6436
▁terrorism	-6437
▁electrical	-6438
▁experiment	-6439
▁importance	-6440
▁monitoring	-6441
▁negotiable	-6442
▁panamanian	-6443
▁plaintiffs	-6444
▁predicting	-6445
▁quotations	-6446
▁rothschild	-6447
▁adjustments	-6448
▁electricity	-6449
▁replacement	-6450
▁subscribers	-6451
▁consequences	-6452
▁improvements	-6453
▁laboratories	-6454
▁partnerships	-6455
▁surprisingly	-6456
▁pharmaceuticals	-6457
ado	-6458
fty	-6459
lom	-6460
oma	-6461
tes	-6462
udi	-6463
▁pu	-6464
erto	-6465
fred	-6466
gged	-6467
here	-6468
ians	-6469
idav	-6470
iece	-6471
ielv	-6472
lein	-6473
less	-6474
mont	-6475
mosp	-6476
onds	-6477
ouri	-6478
ship	-6479
▁alt	-6480
▁ark	-6481
▁der	-6482
▁fee	-6483
▁gau	-6484
▁mix	-6485
anced	-6486
athan	-6487
aware	-6488
bread	-6489
idges	-6490
igned	-6491
imony	-6492
ledge	-6493
▁blow	-6494
▁clin	-6495
▁fled	-6496
▁hits	-6497
▁leap	-6498
▁lone	-6499
▁obst	-6500
▁rain	-6501
▁reop	-6502
▁terr	-6503
▁tiny	-6504
▁vast	-6505
around	-6506
income	-6507
▁abuse	-6508
▁edged	-6509
▁evans	-6510
▁expir	-6511
▁finds	-6512
▁fined	-6513
▁grace	-6514
▁hefty	-6515
▁klein	-6516
▁mines	-6517
▁plane	-6518
▁ralph	-6519
▁risky	-6520
▁saudi	-6521
▁scene	-6522
▁spill	-6523
▁stuff	-6524
▁surro	-6525
america	-6526
▁admits	-6527
▁advers	-6528
▁assass	-6529
▁atmosp	-6530
▁chosen	-6531
▁crimes	-6532
▁diplom	-6533
▁finish	-6534
▁marina	-6535
▁privat	-6536
▁puerto	-6537
▁random	-6538
▁rubber	-6539
▁scheme	-6540
▁specif	-6541
▁spielv	-6542
▁strict	-6543
▁turkey	-6544
▁witter	-6545
▁wright	-6546
▁affidav	-6547
▁bridges	-6548
▁classic	-6549
▁coordin	-6550
▁depends	-6551
▁expires	-6552
▁focused	-6553
▁manages	-6554
▁sectors	-6555
▁sitting	-6556
▁transpl	-6557
▁vermont	-6558
▁adequate	-6559
▁barriers	-6560
▁boosting	-6561
▁colorado	-6562
▁delaware	-6563
▁disagree	-6564
▁dynamics	-6565
▁explains	-6566
▁failures	-6567
▁hardware	-6568
▁injuries	-6569
▁longtime	-6570
▁missouri	-6571
▁modestly	-6572
▁supplier	-6573
▁surveyed	-6574
▁unveiled	-6575
▁advocates	-6576
▁converted	-6577
▁dangerous	-6578
▁depressed	-6579
▁inventory	-6580
▁knowledge	-6581
▁plummeted	-6582
▁receiving	-6583
▁testimony	-6584
▁violation	-6585
▁whitbread	-6586
▁acceptance	-6587
▁adjustable	-6588
▁annualized	-6589
▁approached	-6590
▁assessment	-6591
▁cigarettes	-6592
▁expiration	-6593
▁officially	-6594
▁photograph	-6595
▁prosecutor	-6596
▁spielvogel	-6597
▁structures	-6598
▁struggling	-6599
▁turnaround	-6600
▁bankamerica	-6601
▁diversified	-6602
▁involvement	-6603
▁legislature	-6604
▁necessarily	-6605
▁surrounding	-6606
▁considerably	-6607
▁consistently	-6608
▁neighborhood	-6609
▁respectively	-6610
▁specifically	-6611
▁stockholders	-6612
▁professionals	-6613
ef	-6614
oa	-6615
cut	-6616
how	-6617
ikh	-6618
ipt	-6619
ote	-6620
vin	-6621
▁sn	-6622
bors	-6623
gets	-6624
ghan	-6625
glom	-6626
iere	-6627
iles	-6628
mbol	-6629
odak	-6630
oded	-6631
▁fab	-6632
▁haz	-6633
▁imf	-6634
▁jet	-6635
▁len	-6636
▁lex	-6637
▁sle	-6638
▁tvs	-6639
▁unp	-6640
encil	-6641
iegel	-6642
inist	-6643
iracy	-6644
▁bike	-6645
▁boes	-6646
▁finn	-6647
▁lion	-6648
▁lots	-6649
▁lung	-6650
▁male	-6651
▁mikh	-6652
▁moon	-6653
▁path	-6654
▁prol	-6655
▁seas	-6656
▁sher	-6657
▁sole	-6658
▁toll	-6659
luster	-6660
senate	-6661
ussels	-6662
▁analy	-6663
▁bally	-6664
▁bases	-6665
▁cocoa	-6666
▁fargo	-6667
▁inner	-6668
▁kodak	-6669
▁label	-6670
▁legit	-6671
▁probe	-6672
▁seoul	-6673
▁afghan	-6674
▁allied	-6675
▁artist	-6676
▁banned	-6677
▁conven	-6678
▁devast	-6679
▁doctor	-6680
▁easing	-6681
▁florio	-6682
▁fueled	-6683
▁hiring	-6684
▁hooker	-6685
▁length	-6686
▁marked	-6687
▁merged	-6688
▁motion	-6689
▁nearby	-6690
▁pencil	-6691
▁punish	-6692
▁refuge	-6693
▁samuel	-6694
▁slowly	-6695
▁symbol	-6696
▁volunt	-6697
atically	-6698
eteering	-6699
products	-6700
▁budgets	-6701
▁chevron	-6702
▁conglom	-6703
▁diluted	-6704
▁evening	-6705
▁injured	-6706
▁insists	-6707
▁kenneth	-6708
▁mikhail	-6709
▁pleased	-6710
▁prevail	-6711
▁reality	-6712
▁smoking	-6713
▁spiegel	-6714
▁worries	-6715
▁attended	-6716
▁brussels	-6717
▁clearing	-6718
▁concedes	-6719
▁dropping	-6720
▁insisted	-6721
▁matching	-6722
▁persuade	-6723
▁retained	-6724
▁seasonal	-6725
▁struggle	-6726
▁versions	-6727
▁williams	-6728
▁carpenter	-6729
▁contained	-6730
▁dismissed	-6731
▁dominated	-6732
▁incentive	-6733
▁mentioned	-6734
▁performed	-6735
▁protected	-6736
▁sandinist	-6737
▁solutions	-6738
▁adjustment	-6739
▁affiliates	-6740
▁catastroph	-6741
▁compliance	-6742
▁conspiracy	-6743
▁conviction	-6744
▁federation	-6745
▁healthvest	-6746
▁laboratory	-6747
▁lackluster	-6748
▁presidents	-6749
▁reportedly	-6750
▁repurchase	-6751
▁subsequent	-6752
▁withdrawal	-6753
▁appointment	-6754
▁complicated	-6755
▁contractors	-6756
▁discounting	-6757
▁flexibility	-6758
▁operational	-6759
▁prospective	-6760
▁respondents	-6761
▁restructure	-6762
▁specialized	-6763
▁transferred	-6764
▁commissioner	-6765
▁conglomerate	-6766
▁entrepreneur	-6767
▁implications	-6768
▁independence	-6769
▁introduction	-6770
▁racketeering	-6771
▁investigating	-6772
▁unfortunately	-6773
atz	-6774
fcs	-6775
gry	-6776
isk	-6777
nov	-6778
oco	-6779
unk	-6780
uns	-6781
▁hu	-6782
aiss	-6783
corp	-6784
emex	-6785
inds	-6786
math	-6787
nett	-6788
olas	-6789
part	-6790
redu	-6791
urer	-6792
▁dod	-6793
▁log	-6794
▁okl	-6795
▁rac	-6796
▁tox	-6797
▁usa	-6798
equer	-6799
erted	-6800
inced	-6801
inoff	-6802
istan	-6803
keley	-6804
liers	-6805
oster	-6806
sized	-6807
uable	-6808
▁belg	-6809
▁bias	-6810
▁born	-6811
▁capt	-6812
▁cfcs	-6813
▁diss	-6814
▁fare	-6815
▁flaw	-6816
▁fuji	-6817
▁katz	-6818
▁palo	-6819
▁shed	-6820
▁tact	-6821
▁user	-6822
▁wash	-6823
amento	-6824
ancing	-6825
contin	-6826
ground	-6827
isters	-6828
letter	-6829
taking	-6830
▁amoco	-6831
▁angry	-6832
▁bates	-6833
▁craig	-6834
▁fidel	-6835
▁honda	-6836
▁injun	-6837
▁innov	-6838
▁kinds	-6839
▁loose	-6840
▁lotus	-6841
▁panic	-6842
▁pemex	-6843
▁roads	-6844
▁steve	-6845
▁tandy	-6846
▁theat	-6847
▁trump	-6848
gersoll	-6849
perform	-6850
▁agrees	-6851
▁anyway	-6852
▁counts	-6853
▁desper	-6854
▁dozens	-6855
▁driven	-6856
▁dumped	-6857
▁emerge	-6858
▁foster	-6859
▁hudson	-6860
▁jurors	-6861
▁kemper	-6862
▁licens	-6863
▁notion	-6864
▁ounces	-6865
▁picked	-6866
▁racial	-6867
▁remark	-6868
▁robust	-6869
▁salary	-6870
▁secure	-6871
▁skills	-6872
▁stance	-6873
▁troops	-6874
▁upward	-6875
aissance	-6876
▁attacks	-6877
▁baskets	-6878
▁bearish	-6879
▁charity	-6880
▁cleanup	-6881
▁confron	-6882
▁forcing	-6883
▁goodson	-6884
▁killing	-6885
▁mercury	-6886
▁mission	-6887
▁planner	-6888
▁pointed	-6889
▁portray	-6890
▁raymond	-6891
▁rolling	-6892
▁rumored	-6893
▁russian	-6894
▁sending	-6895
▁shipped	-6896
▁spanish	-6897
▁speaker	-6898
▁spinoff	-6899
▁stepped	-6900
▁survive	-6901
▁suspect	-6902
▁swedish	-6903
▁viewers	-6904
continued	-6905
reduction	-6906
▁advisory	-6907
▁attribut	-6908
▁aviation	-6909
▁berkeley	-6910
▁compiled	-6911
▁eligible	-6912
▁equities	-6913
▁fidelity	-6914
▁financed	-6915
▁formally	-6916
▁incident	-6917
▁jacobson	-6918
▁licenses	-6919
▁nicholas	-6920
▁ordinary	-6921
▁reinvest	-6922
▁reliance	-6923
▁shortage	-6924
▁suburban	-6925
▁supervis	-6926
▁ultimate	-6927
▁valuable	-6928
▁affecting	-6929
▁aftermath	-6930
▁apartment	-6931
▁basically	-6932
▁coalition	-6933
▁convinced	-6934
▁exchequer	-6935
▁expecting	-6936
▁extension	-6937
▁generated	-6938
▁happening	-6939
▁ingersoll	-6940
▁installed	-6941
▁ministers	-6942
▁suppliers	-6943
▁therefore	-6944
▁treasurer	-6945
▁weakening	-6946
▁competitor	-6947
▁completion	-6948
▁components	-6949
▁conversion	-6950
▁injunction	-6951
▁newsletter	-6952
▁promotions	-6953
▁publishers	-6954
▁redemption	-6955
▁restricted	-6956
▁sacramento	-6957
▁eliminating	-6958
▁indications	-6959
▁refinancing	-6960
▁renaissance	-6961
▁discontinued	-6962
▁relationships	-6963
awa	-6964
cur	-6965
ebr	-6966
eer	-6967
eva	-6968
ipe	-6969
itu	-6970
ode	-6971
ola	-6972
ubs	-6973
▁md	-6974
boys	-6975
eria	-6976
erly	-6977
fers	-6978
igel	-6979
iner	-6980
init	-6981
ippi	-6982
lled	-6983
mune	-6984
offs	-6985
olut	-6986
omin	-6987
▁cow	-6988
▁dar	-6989
▁gaf	-6990
▁ice	-6991
▁jay	-6992
▁les	-6993
▁nab	-6994
▁rig	-6995
▁tva	-6996
▁vul	-6997
ansui	-6998
elled	-6999
erals	-7000
irect	-7001
orous	-7002
print	-7003
rance	-7004
rimin	-7005
useum	-7006
venth	-7007
▁athl	-7008
▁bass	-7009
▁cree	-7010
▁golf	-7011
▁lake	-7012
▁lucr	-7013
▁pion	-7014
▁rebu	-7015
▁rely	-7016
▁rice	-7017
▁rowe	-7018
▁sull	-7019
▁utah	-7020
▁ward	-7021
▁warn	-7022
choice	-7023
consin	-7024
ectual	-7025
itures	-7026
ortium	-7027
retion	-7028
▁anger	-7029
▁brick	-7030
▁cumul	-7031
▁defer	-7032
▁entry	-7033
▁facts	-7034
▁globe	-7035
▁guest	-7036
▁honor	-7037
▁horse	-7038
▁nigel	-7039
▁overr	-7040
▁semel	-7041
▁shelf	-7042
▁solic	-7043
▁sport	-7044
▁steal	-7045
▁swift	-7046
▁truth	-7047
▁wheat	-7048
iciency	-7049
issippi	-7050
nerable	-7051
olutely	-7052
▁belong	-7053
▁celebr	-7054
▁danger	-7055
▁darman	-7056
▁disney	-7057
▁dispos	-7058
▁empire	-7059
▁enable	-7060
▁fusion	-7061
▁geneva	-7062
▁hispan	-7063
▁immune	-7064
▁incest	-7065
▁intens	-7066
▁lowest	-7067
▁medium	-7068
▁minute	-7069
▁museum	-7070
▁nether	-7071
▁owning	-7072
▁refund	-7073
▁reserv	-7074
▁reveal	-7075
▁rolled	-7076
▁sansui	-7077
▁seller	-7078
▁sounds	-7079
▁stolen	-7080
▁warsaw	-7081
▁workst	-7082
abortion	-7083
business	-7084
▁animals	-7085
▁bonuses	-7086
▁bullish	-7087
▁compare	-7088
▁cowboys	-7089
▁edwards	-7090
▁elderly	-7091
▁formula	-7092
▁grounds	-7093
▁jackson	-7094
▁nabisco	-7095
▁optical	-7096
▁pioneer	-7097
▁prepare	-7098
▁resorts	-7099
▁serving	-7100
▁teacher	-7101
▁tourist	-7102
▁wedtech	-7103
ibilities	-7104
▁articles	-7105
▁averaged	-7106
▁claiming	-7107
▁conceded	-7108
▁constitu	-7109
▁creation	-7110
▁dominant	-7111
▁dorrance	-7112
▁indirect	-7113
▁informed	-7114
▁instruct	-7115
▁judgment	-7116
▁maturing	-7117
▁motorola	-7118
▁packaged	-7119
▁reaching	-7120
▁referred	-7121
▁regarded	-7122
▁requests	-7123
▁restrain	-7124
▁staffers	-7125
▁sullivan	-7126
▁tourists	-7127
rimination	-7128
▁arguments	-7129
▁carefully	-7130
▁connaught	-7131
▁execution	-7132
▁explained	-7133
▁lucrative	-7134
▁marketers	-7135
▁preparing	-7136
▁promoting	-7137
▁rejection	-7138
▁similarly	-7139
▁somewhere	-7140
▁treasurys	-7141
▁unusually	-7142
▁wisconsin	-7143
▁absolutely	-7144
▁announcing	-7145
▁consortium	-7146
▁cumulative	-7147
▁discretion	-7148
▁efficiency	-7149
▁healthcare	-7150
▁louisville	-7151
▁recognized	-7152
▁repeatedly	-7153
▁strategist	-7154
▁vulnerable	-7155
▁communities	-7156
▁concessions	-7157
▁congressman	-7158
▁distributor	-7159
▁encouraging	-7160
▁liabilities	-7161
▁mississippi	-7162
▁netherlands	-7163
▁publication	-7164
▁agricultural	-7165
▁calculations	-7166
▁expenditures	-7167
▁intellectual	-7168
▁superconduct	-7169
▁investigators	-7170
▁discrimination	-7171
dp	-7172
of	-7173
dtv	-7174
enb	-7175
kur	-7176
lyn	-7177
nzo	-7178
uce	-7179
▁oz	-7180
dict	-7181
grow	-7182
half	-7183
heed	-7184
icam	-7185
icop	-7186
iden	-7187
ieux	-7188
iods	-7189
itte	-7190
soft	-7191
stig	-7192
yard	-7193
▁bag	-7194
▁clo	-7195
▁fet	-7196
▁fha	-7197
▁ldp	-7198
▁nel	-7199
▁nev	-7200
▁ram	-7201
▁vig	-7202
adeau	-7203
arity	-7204
edith	-7205
ician	-7206
iking	-7207
ilton	-7208
odate	-7209
oitte	-7210
onent	-7211
verly	-7212
▁alto	-7213
▁buff	-7214
▁buys	-7215
▁crew	-7216
▁emot	-7217
▁gall	-7218
▁hdtv	-7219
▁inev	-7220
▁lore	-7221
▁mood	-7222
▁nice	-7223
▁offs	-7224
▁pled	-7225
▁song	-7226
▁spin	-7227
▁spur	-7228
▁stam	-7229
▁tele	-7230
▁tony	-7231
enbaum	-7232
encing	-7233
enheim	-7234
itious	-7235
render	-7236
▁avery	-7237
▁bonus	-7238
▁buick	-7239
▁colon	-7240
▁draft	-7241
▁harry	-7242
▁highs	-7243
▁lunch	-7244
▁mason	-7245
▁ozone	-7246
▁relie	-7247
▁revco	-7248
▁storm	-7249
▁tanks	-7250
▁truly	-7251
▁unpre	-7252
▁upham	-7253
▁upset	-7254
anation	-7255
control	-7256
growing	-7257
troller	-7258
uations	-7259
vention	-7260
▁accomm	-7261
▁adults	-7262
▁animal	-7263
▁bright	-7264
▁colony	-7265
▁comedy	-7266
▁contra	-7267
▁feared	-7268
▁gerald	-7269
▁halted	-7270
▁hotels	-7271
▁ignore	-7272
▁kansas	-7273
▁lifted	-7274
▁maiden	-7275
▁merkur	-7276
▁nelson	-7277
▁notice	-7278
▁rarely	-7279
▁routes	-7280
▁surely	-7281
▁talked	-7282
▁tracks	-7283
▁unders	-7284
▁useful	-7285
cedented	-7286
enheimer	-7287
▁absence	-7288
▁anthony	-7289
▁arrived	-7290
▁bargain	-7291
▁beverly	-7292
▁broadly	-7293
▁brother	-7294
▁coleman	-7295
▁columns	-7296
▁contact	-7297
▁employs	-7298
▁engines	-7299
▁exposed	-7300
▁fireman	-7301
▁gardens	-7302
▁heating	-7303
▁landing	-7304
▁lorenzo	-7305
▁merieux	-7306
▁notably	-7307
▁periods	-7308
▁posting	-7309
▁prestig	-7310
▁privile	-7311
▁procter	-7312
▁reacted	-7313
▁removed	-7314
▁reverse	-7315
▁routine	-7316
▁rubicam	-7317
▁seagram	-7318
▁silicon	-7319
▁strikes	-7320
▁surface	-7321
▁unclear	-7322
▁visible	-7323
▁visited	-7324
▁windows	-7325
▁advances	-7326
▁anywhere	-7327
▁arranged	-7328
▁brooklyn	-7329
▁clothing	-7330
▁conflict	-7331
▁deciding	-7332
▁deloitte	-7333
▁employer	-7334
▁floating	-7335
▁ignoring	-7336
▁involves	-7337
▁lockheed	-7338
▁meredith	-7339
▁momentum	-7340
▁operated	-7341
▁pregnant	-7342
▁protests	-7343
▁refining	-7344
▁reporter	-7345
▁restored	-7346
▁richmond	-7347
▁sentence	-7348
▁shipyard	-7349
▁stamford	-7350
▁striking	-7351
▁superior	-7352
▁thousand	-7353
▁violated	-7354
▁achenbaum	-7355
▁ambitious	-7356
▁benefited	-7357
▁campaigns	-7358
▁computing	-7359
▁emotional	-7360
▁featuring	-7361
▁frederick	-7362
▁improving	-7363
▁microsoft	-7364
▁passenger	-7365
▁prominent	-7366
▁recognize	-7367
▁strongest	-7368
▁surrender	-7369
▁basketball	-7370
▁categories	-7371
▁challenges	-7372
▁contribute	-7373
▁definition	-7374
▁engineered	-7375
▁explaining	-7376
▁maidenform	-7377
▁nicaraguan	-7378
▁offsetting	-7379
▁psychology	-7380
▁responding	-7381
▁solidarity	-7382
▁accommodate	-7383
▁application	-7384
▁comptroller	-7385
▁examination	-7386
▁explanation	-7387
▁franchisees	-7388
▁oppenheimer	-7389
▁intervention	-7390
▁unsuccessful	-7391
communications	-7392
▁unprecedented	-7393
di	-7394
gu	-7395
aik	-7396
amm	-7397
ams	-7398
ars	-7399
cia	-7400
liv	-7401
lov	-7402
rud	-7403
ycl	-7404
zed	-7405
▁id	-7406
▁lu	-7407
▁pc	-7408
abul	-7409
achi	-7410
each	-7411
ebok	-7412
enda	-7413
etti	-7414
fill	-7415
gery	-7416
life	-7417
raid	-7418
serv	-7419
ucky	-7420
umed	-7421
wart	-7422
▁cie	-7423
▁dpc	-7424
▁hbo	-7425
▁itt	-7426
▁sdi	-7427
▁siz	-7428
▁yes	-7429
abins	-7430
adily	-7431
athen	-7432
echan	-7433
enson	-7434
estle	-7435
probe	-7436
rolet	-7437
▁ally	-7438
▁alum	-7439
▁aver	-7440
▁band	-7441
▁bork	-7442
▁craz	-7443
▁cycl	-7444
▁dole	-7445
▁fend	-7446
▁idle	-7447
▁kemp	-7448
▁mack	-7449
▁oliv	-7450
▁pork	-7451
▁pour	-7452
▁pump	-7453
▁reyn	-7454
▁tank	-7455
▁wary	-7456
▁yiel	-7457
ectors	-7458
idency	-7459
ilding	-7460
inking	-7461
ishita	-7462
rudman	-7463
street	-7464
▁accur	-7465
▁crane	-7466
▁crush	-7467
▁debut	-7468
▁diego	-7469
▁drawn	-7470
▁drove	-7471
▁exhib	-7472
▁fault	-7473
▁films	-7474
▁gramm	-7475
▁jerry	-7476
▁kabul	-7477
▁links	-7478
▁liter	-7479
▁maine	-7480
▁milan	-7481
▁moral	-7482
▁ranks	-7483
▁rouge	-7484
▁shore	-7485
▁sixth	-7486
▁tokyu	-7487
▁upper	-7488
abinsky	-7489
▁afraid	-7490
▁agenda	-7491
▁ballot	-7492
▁belief	-7493
▁benson	-7494
▁blocks	-7495
▁carlos	-7496
▁clause	-7497
▁covert	-7498
▁deeply	-7499
▁denies	-7500
▁desert	-7501
▁female	-7502
▁garcia	-7503
▁harold	-7504
▁herald	-7505
▁lately	-7506
▁levine	-7507
▁liquor	-7508
▁mather	-7509
▁mechan	-7510
▁method	-7511
▁mitsui	-7512
▁nestle	-7513
▁parall	-7514
▁pestic	-7515
▁realty	-7516
▁reebok	-7517
▁repeal	-7518
▁select	-7519
▁shared	-7520
▁shield	-7521
▁string	-7522
▁submit	-7523
▁summit	-7524
▁thanks	-7525
▁vision	-7526
▁wathen	-7527
eachment	-7528
services	-7529
▁backlog	-7530
▁content	-7531
▁defined	-7532
▁definit	-7533
▁drivers	-7534
▁emerged	-7535
▁equally	-7536
▁eurocom	-7537
▁favored	-7538
▁finland	-7539
▁granted	-7540
▁hitachi	-7541
▁ignored	-7542
▁jewelry	-7543
▁keating	-7544
▁kingdom	-7545
▁matched	-7546
▁parking	-7547
▁patient	-7548
▁reaches	-7549
▁sizable	-7550
▁studied	-7551
▁surgery	-7552
▁textile	-7553
▁tickets	-7554
▁tourism	-7555
▁upscale	-7556
▁violate	-7557
▁welcome	-7558
▁actively	-7559
▁aluminum	-7560
▁creditor	-7561
▁cyclical	-7562
▁displays	-7563
▁employed	-7564
▁executed	-7565
▁guilders	-7566
▁improper	-7567
▁incurred	-7568
▁kentucky	-7569
▁lobbying	-7570
▁meantime	-7571
▁narrowed	-7572
▁olivetti	-7573
▁opposite	-7574
▁packwood	-7575
▁physical	-7576
▁predicts	-7577
▁properly	-7578
▁pursuing	-7579
▁restated	-7580
▁reynolds	-7581
▁squeezed	-7582
▁steadily	-7583
▁stemming	-7584
▁targeted	-7585
▁yielding	-7586
▁adjusters	-7587
▁advancing	-7588
▁chevrolet	-7589
▁cigarette	-7590
▁commodore	-7591
▁confusion	-7592
▁connected	-7593
▁delicious	-7594
▁discounts	-7595
▁drabinsky	-7596
▁implement	-7597
▁mcdonough	-7598
▁merchants	-7599
▁morishita	-7600
▁mortality	-7601
▁rebounded	-7602
▁regulator	-7603
▁skeptical	-7604
▁suffering	-7605
▁universal	-7606
▁bradstreet	-7607
▁conducting	-7608
▁maturities	-7609
▁objectives	-7610
▁presidency	-7611
▁researcher	-7612
▁strengthen	-7613
▁transition	-7614
▁bondholders	-7615
▁impeachment	-7616
▁interviewed	-7617
▁maintaining	-7618
▁suggestions	-7619
▁contribution	-7620
▁satisfaction	-7621
▁successfully	-7622
▁underwriting	-7623
▁establishment	-7624
▁participating	-7625
▁supercomputer	-7626
▁investigations	-7627
uk	-7628
car	-7629
gon	-7630
nad	-7631
oct	-7632
okh	-7633
▁fa	-7634
▁iv	-7635
▁nl	-7636
brid	-7637
cean	-7638
cine	-7639
holm	-7640
iers	-7641
inas	-7642
inep	-7643
iscr	-7644
peco	-7645
real	-7646
roll	-7647
sche	-7648
▁eli	-7649
▁ftc	-7650
▁inn	-7651
▁kas	-7652
ashua	-7653
aults	-7654
cohol	-7655
const	-7656
doing	-7657
elman	-7658
iston	-7659
itage	-7660
nadze	-7661
parov	-7662
theid	-7663
utter	-7664
▁apar	-7665
▁bugs	-7666
▁daly	-7667
▁deut	-7668
▁dict	-7669
▁ding	-7670
▁enab	-7671
▁furn	-7672
▁garr	-7673
▁glas	-7674
▁grab	-7675
▁guer	-7676
▁guys	-7677
▁hang	-7678
▁hoff	-7679
▁intr	-7680
▁kick	-7681
▁mere	-7682
▁nato	-7683
▁negl	-7684
▁outs	-7685
▁quit	-7686
▁shel	-7687
▁urge	-7688
▁wire	-7689
atures	-7690
endous	-7691
exempt	-7692
graded	-7693
people	-7694
sector	-7695
strong	-7696
ultane	-7697
▁alive	-7698
▁alter	-7699
▁altog	-7700
▁antar	-7701
▁array	-7702
▁bears	-7703
▁cinep	-7704
▁coach	-7705
▁della	-7706
▁fares	-7707
▁gould	-7708
▁haven	-7709
▁inher	-7710
▁khmer	-7711
▁libor	-7712
▁ocean	-7713
▁phase	-7714
▁rosen	-7715
▁seize	-7716
▁smoke	-7717
▁stuck	-7718
▁teddy	-7719
▁topic	-7720
▁tries	-7721
▁wider	-7722
develop	-7723
iscribe	-7724
october	-7725
quality	-7726
▁alaska	-7727
▁apiece	-7728
▁bacter	-7729
▁bottle	-7730
▁camera	-7731
▁combat	-7732
▁decker	-7733
▁denver	-7734
▁falcon	-7735
▁femina	-7736
▁fortun	-7737
▁hybrid	-7738
▁impose	-7739
▁intend	-7740
▁latter	-7741
▁losers	-7742
▁nashua	-7743
▁oregon	-7744
▁refuse	-7745
▁serves	-7746
▁singer	-7747
▁spirit	-7748
▁stages	-7749
▁volokh	-7750
▁adverse	-7751
▁alcohol	-7752
▁banning	-7753
▁combine	-7754
▁couples	-7755
▁creates	-7756
▁designs	-7757
▁dingell	-7758
▁edelman	-7759
▁enacted	-7760
▁feature	-7761
▁harvest	-7762
▁heading	-7763
▁hoffman	-7764
▁interim	-7765
▁israeli	-7766
▁knocked	-7767
▁leasing	-7768
▁letting	-7769
▁madison	-7770
▁married	-7771
▁mexican	-7772
▁minpeco	-7773
▁payroll	-7774
▁picking	-7775
▁pursuit	-7776
▁qualify	-7777
▁regions	-7778
▁registr	-7779
▁sanford	-7780
▁shevard	-7781
▁shuttle	-7782
▁signing	-7783
▁slashed	-7784
▁soaring	-7785
▁societe	-7786
▁sparked	-7787
▁stemmed	-7788
▁tougher	-7789
▁unconst	-7790
▁vaccine	-7791
▁winners	-7792
▁writers	-7793
developed	-7794
itutional	-7795
▁agreeing	-7796
▁amounted	-7797
▁anderson	-7798
▁arkansas	-7799
▁assigned	-7800
▁champion	-7801
▁christie	-7802
▁cineplex	-7803
▁coniston	-7804
▁decrease	-7805
▁defaults	-7806
▁designer	-7807
▁deutsche	-7808
▁diseases	-7809
▁glasnost	-7810
▁guerrill	-7811
▁heritage	-7812
▁indicted	-7813
▁insiders	-7814
▁kasparov	-7815
▁magnetic	-7816
▁montreal	-7817
▁overcome	-7818
▁salaries	-7819
▁tendered	-7820
▁violence	-7821
▁apartheid	-7822
▁armstrong	-7823
▁assurance	-7824
▁attempted	-7825
▁bernstein	-7826
▁clearance	-7827
▁copyright	-7828
▁emissions	-7829
▁excessive	-7830
▁functions	-7831
▁furniture	-7832
▁gathering	-7833
▁movements	-7834
▁negotiate	-7835
▁publicity	-7836
▁remainder	-7837
▁simultane	-7838
▁southeast	-7839
▁southwest	-7840
▁steinberg	-7841
▁stockholm	-7842
▁transform	-7843
▁altogether	-7844
▁atmosphere	-7845
▁beneficial	-7846
▁consisting	-7847
▁depositary	-7848
▁discussion	-7849
▁eurodollar	-7850
▁historical	-7851
▁legitimate	-7852
▁miniscribe	-7853
▁passengers	-7854
▁perception	-7855
▁popularity	-7856
▁protesters	-7857
▁regardless	-7858
▁speculated	-7859
▁suggesting	-7860
▁tremendous	-7861
▁wrongdoing	-7862
▁obligations	-7863
▁promotional	-7864
▁salespeople	-7865
▁settlements	-7866
▁threatening	-7867
▁acknowledges	-7868
▁fundamentals	-7869
▁occasionally	-7870
▁registration	-7871
▁shevardnadze	-7872
▁communication	-7873
▁consolidation	-7874
▁privatization	-7875
▁understanding	-7876
▁recommendations	-7877
asz	-7878
eni	-7879
fre	-7880
igo	-7881
iov	-7882
irl	-7883
izz	-7884
ows	-7885
▁aw	-7886
▁cs	-7887
▁ky	-7888
avor	-7889
blor	-7890
enom	-7891
enon	-7892
erox	-7893
hors	-7894
iser	-7895
isse	-7896
izer	-7897
john	-7898
ogue	-7899
oods	-7900
oted	-7901
resp	-7902
rice	-7903
ruit	-7904
tail	-7905
wich	-7906
yant	-7907
▁ash	-7908
▁ble	-7909
▁cup	-7910
▁edt	-7911
▁god	-7912
▁gte	-7913
▁lbo	-7914
▁mul	-7915
▁nfl	-7916
▁nih	-7917
▁nsc	-7918
▁oli	-7919
▁pas	-7920
▁pcs	-7921
▁rtc	-7922
▁sky	-7923
▁sus	-7924
▁tem	-7925
▁zur	-7926
after	-7927
ahoma	-7928
bered	-7929
enius	-7930
inger	-7931
ipino	-7932
isons	-7933
leans	-7934
parts	-7935
rison	-7936
ropro	-7937
shiba	-7938
ughes	-7939
ulous	-7940
▁anhe	-7941
▁bour	-7942
▁buck	-7943
▁cope	-7944
▁cuba	-7945
▁dark	-7946
▁enem	-7947
▁epis	-7948
▁girl	-7949
▁gren	-7950
▁grid	-7951
▁hint	-7952
▁keen	-7953
▁pall	-7954
▁radi	-7955
▁roch	-7956
▁shap	-7957
▁sick	-7958
▁stun	-7959
▁vess	-7960
▁wins	-7961
▁yale	-7962
andler	-7963
▁	-7964
e	-7965
t	-7966
a	-7967
o	-7968
i	-7969
n	-7970
s	-7971
r	-7972
h	-7973
l	-7974
d	-7975
c	-7976
u	-7977
m	-7978
f	-7979
p	-7980
g	-7981
y	-7982
b	-7983
w	-7984
v	-7985
N	-7986
k	-7987
.	-7988
'	-7989
x	-7990
j	-7991
$	-7992
-	-7993
q	-7994
z	-7995
&	-7996
